170b2d 273bd4 841e265 808cddb 83f0ff5 3c6c88 bb964 61a203 87b09e2 3044e 8392a57 76a485 5fa399 82cb1e2 d574d 5abc9d 84584f4 8282974 6c6c2f 25a80f 86d6171 57cfb1 803bce3 803051b 81ff8fb 5af640 33aff7 62a083 841e247 86faa50 87b8db5 832803c 8029253 2ec1fb 26b10f 8512b92 86d0023 22b57b 80e20e1 80007ac 8103950 809ff67 2e1fe9 677019 67d706 83b73da 8739e1d 603756 4ee574 87602f6 81fcfa3 213606 8073259 3c3653 4cef0f 837bd8e 8326653 33e9b7 49c3bd 622135 85f30ed 12a418 76a494 81ebf54 85e7051 6495b1 674623 8696ec0 811ae13 840bbfa 84cad4f 78fbe6 6f1ee1 875cdbd 3be7ad 791bf1 52662c 87b0672 502153 4fa3ff 85a53be 86a7350 876e473 7818b8 85b5f80 7992eb 4becb1 819cf86 85c6aec 4908 806c8b3 4a9dd1 81f9099 8299e49 86d8f40 81ffee1 821dbb2 7208fd 8302ae0 85e571a 16cd00 870555a 8304b4c 86a2da8 8664da4 843b6ce 17633 482822 8467066 649559 84571be 579ea0 140093 85e5911 85b96a1 87427ff 842700d 813a6af 8720d23 747b4c 2a3b8d 8796a84 803acbf 43ac3b 87804d0 ae08a 846b155 55b7c7 8638782 8730b47 82d2509 672fd6 81cbccb 57c088 85590c7 41e1b6 61fa9 86c8c22 84ae2fa 82615dd 818e630 7b41f9 84327ae 84dadd6 8619376 2ba7f3 8608639 6150b5 2d3afb 83dc609 8274562 82750dc 85735b4 86fddb8 7a9da3 86b8f6f 8483642 8727478 846ff50 5acd9b 8092761 836074d 871269c 5884bd 84cf61e 84bee9e 385293 147a06 5a42d 6f2d38 878af1c 84cafac 7ba72f 329cf6 87b1c52 585e9a 22bad0 6ece75 57a545 1ffc34 8748661 1e09a8 627f48 3a3d60 83fd318 80a8c84 81b8914 86c32af 86ddedf 8571b49 18f57b 3ab38 84afbd1 f0cd5 8033acf 834b5e7 1e55da 855344d 568253 5193e0 76b11f 86da28b 80c2fac 211979 857b281 8613076 83a07d9 68d239 81fdaac 16ece2 83feaf5 86b51ec 8430f2d 135b29 80c5edb 7d055 313ecf 6ac44 5efab3 85beea8 1e2bda 1897e6 2a0397 82ca8a4 86670cc 813d7c9 13e45e 3e88d9 81c1aef 538324 81db23d 86b1850 4a3870 8627920 22a8af 68c4d3 85501f2 85679ad 8525943 83f5b89 8202bfc 803a2de 8114afb 508dd6 85da172 151af6 1677b 52e10e 86325da 85f79e7 5fbbbe 823eeb1 8611b24 603d1f 8559f0a 570a4c d2cd 86c7dd1 832a868 857ec47 965c0 874a4d2 5c3731 8264389 8447b7f 682a5 49bc4b 322e15 712ac7 8381faf 62a227 b7631 83a3789 322bf6 4fcd40 86806cf 59acc1 215cab 811cb2a 640faa a5467 876c7f3 48f719 38393d 202d30 69003e 442fd 82149b9 8385d74 82b11cb 1fec1f 8471612 8377984 834e4b7 8597ed1 36ab88 5d3b18 83c1d56 5851e1 8531fdb 84532a3 5ca794 4e2cb9 81109c4 73c8cf 8387665 6dbe2b 3bf94 17ae65 85d6150 838f325 1b227 4d73cf 81276a6 1f1267 862dddc 84840be 1b80c9 1cec0 715568 877dc03 2765de 7c511 8521577 8468ed9 33d4ae 64bba5 6e60dc 46f527 8574ece 2011f6 187e12 6fa7d7 fdf19 80be785 866184d 151d02 552893 4f9eaa 5a82d5 812f49b 1a0271 5f9988 8329a9f 6b8015 8390fe1 31936a 62468c 8101bd2 86d4714 1dbd2c 21c3ab 66aad4 2afc1 874952f 2c092f 8184de0 13966e 83a6109 83bd501 2e6bd0 83441a9 37ccc1 2b1d91 8460dd5 2678c9 84f2939 2c2be9 6a1383 879f902 81d2b36 83fb927 4f6d1a 8555c83 2eeb0e 235875 8026927 8294aba 432ebc 5a104f 84c0c21 85fbbe9 860a0af 85f6534 42ff 82d103b 82fac87 80005fb 836bb5a 2bf721 485010 8010791 139f50 8079a71 6352d 5d484d 83e4852 8265731 8176c20 3b8e43 b3cb9 83a6325 7674dc 123082 828a11e 813949d 82955be 42183f 1994c2 811c429 832ef11 b32d5 84ef93b 5f0ef6 872c6b0 10b904 25d235 8001217 8529cfd 808e666 80b0efc 4f5894 2904c9 8122d90 819eb7f 5f277f 20563 85afb6f 8203a7b 177d9 105a6 8635abf 2537e9 60d870 8203434 86d13c2 405be8 79692b 4510cb 82cc41a 83a0547 5b7bb1 10cd5c 8723258 2b09ab 873d94d 22d2ca 835cf0e 5fe93c 83d7697 8609288 8398132 867c79f 26305f 6bbb52 8284d54 5ca3a4 8769874 25e80a 8553461 8662a09 87a8408 8240a5f 3d0344 860233d 8509275 845fb85 86b6c2a 28b4bc 87138cf 317aaf 7b6bb8 8084a64 29bacf 7b592b 430017 14722a 43171 864b684 873787c cbb8d 81495ef 5aa332 495585 3e3071 151a51 574b8f 2b50d6 29a7e 83ce960 834a252 80dfb3d 45c32f 2f356b 80df36b 130f9c 82d7ad3 828cd25 873f768 139a21 3d686f 84c2550 32c225 8347fd0 12a3d8 81fb30f 8780d6a 6d673 86af956 86f6590 c2bd2 8650441 85e3ebc 2e6794 82c97b7 8767480 83f8514 8266803 623988 82c771f 57807 22e4fc 836a169 810178c 81718e7 68ee27 48f3b 8274d4f 854322a 68d81e 83f55ca 85d970d 67fa8 7a922e 743808 6d5db 8192cb6 8765d86 827c147 8184332 1fd69a 86c3606 1d5d55 87af495 2d159c 846e67b 8166762 dc6da 5d04b7 817cf9a 3fba36 3314c3 6d4ccc 11a328 84f1a25 8451634 957d2 784bbe 8025c4c 448b7d 1a0488 852aa72 5801b4 871beec 39d90d 3eb962 459c78 864cab1 30555e 89102 804fd9e 86570d4 6a856f 82f3c73 832cd09 36bf74 8344a70 8227125 346780 30e65a 84ae101 8506394 83bcfe8 8774f25 18aea1 10624b 11cd55 dba7a 85f9de2 787cd9 6af67f 83682ca 86463f7 5c7438 231e7 8003ab1 1f0ce 50c7de 68987f 82bfe1d 4f7aa3 5c159b 54edea 3761e 8419e1d 367fe3 632e29 8464e27 3a88ea 801a82c 609ea 8367feb 81f3696 85bf71c 2ef2dd 2e32f e858 421776 8788020 fd108 678a02 1be6f 6ed288 3e2fa4 5aa55a 2bc5be 8069645 860c145 84e8316 3553e1 8218a78 770796 42bc01 81ee04b 3d8c48 843b3ee 58fb0a 802d39b 8182a16 8706760 86d5d78 1436e7 83a732e fc747 425a30 173c9 85cf5db 800904b 3c4bc5 810b026 5702fe 875ed07 83caf00 879c85a 526f1d 877ace3 81a12d5 817fff5 801bb96 63acc2 84a01e4 445f50 279ed9 834b871 80ec51d 51341e 82424cb 829a232 32f518 86f59aa 817d480 12fe82 80ef117 c6dec 847e3ce 85d6745 82d3c6c 2d10fa 419c93 8690851 4d3169 80977ed 515350 844ef38 4b3371 7b880d 41e821 5c95af 82a21ed 84c5c51 8610303 84d0056 b33ff 8523279 84037f7 774751 83664c5 179bfd 8371b9f 86b2b79 19ff84 8558456 797fd3 78d3dd 6f5c85 875657c 83eba7e 5d5a08 37e104 8793827 153aa6 2f7816 8724357 843ea13 53edd6 3e0500 4a1809 32d303 1130bb 8148b75 86c2ad6 687147 101ae8 18fcc7 70e7f5 869ca4e 8211c56 6f0ee2 81057ae 82e50cf 82d911e 803ea9f 83bbd70 8661765 81398ee 823c9eb 11495 6ee673 8101b53 860a60a 8168eee 28def6 324649 533f42 f892f 24c1c 770f61 195b03 181899 864bcfb 497341 5df0e6 8429552 3a6be1 8154cfb 8246f62 ec5bd 787435 83a41b2 83d34bc 85d680d 6ea588 80358ff 23f706 84455b3 847bc16 84700d6 6d83eb 3e496e 8553f0d 40f3f2 80ae334 83bab8c 7573cf 86d76ad 83a4417 831378d 81b1fa6 2e17c5 8542ab2 83fa2d9 4c99b1 2ce20a 823d095 58f32a 7a6845 83a2d71 6a629c 865d1d2 3d4b03 134035 830a9fb 4c3a1f 84cffbf 827ba88 8544a8b 648026 836c5e4 139f6a 84c0c 81b17cd 87761d5 2d9578 84f9214 860b579 85bf6b2 65bae7 842d187 8620907 243bdd 81cb035 334c98 83d9644 6d5078 84e5c65 e39dc 87ae460 3ca204 80ace35 83f4143 5ac799 82b6591 827f09c 8446158 825025c 388329 2b0f9f 83e1639 82409df 14634 465408 864fca4 8165db7 578ea3 1ab473 1858b8 c4db 7834ea 448cad 8147cd3 2e5ef9 7cbc4 d10f1 fd8c0 1aea29 84495a4 51b92d 12d40e 853c792 826b237 179458 8733cc4 80a82f8 817bbfe 661563 71a409 5ce779 13e43c 806e57b 1c6d6c 8119f7b 833f31d 80044 5975dc 855bc94 203152 8634404 6a5b26 1cfbc6 55e368 6ad09 8548c19 861b7b9 825e5d4 3b1360 80bf8cd 4bd58a 32a1c4 817e1d9 80bdc07 446149 86b3055 238b6a 83cfab8 8553290 85ef6ba 56092e 81d53eb 147b68 877e4bf 24f589 28cb9e 865df22 104e05 805bc00 80e3211 814f586 85c54ee 4d667c 74e49d 849af64 659772 678268 859eadd 84cc44e 4d8687 83b2d14 196ce7 86bb433 5da654 629195 86448ee 4b7612 7a5200 85f6750 833fc7d 3256dc 581ad2 810944b 370f1d 6d01e7 7241bb 11f2e3 1a5e12 151df0 88153 80f3faf 2f57cd 8786c7a 4156f3 c851 60d915 81f51dd 806e15f 58b4b7 87911ec 8694c77 812373a 845e94f c0f69 232f29 40fc13 4d851 680dd6 20f007 11d2c9 866d024 35c422 1f39f4 62ff61 44c703 a2f47 390e5a 82c304b 874a6ed 5aa118 5dac4a 56f631 8412aa3 841e647 101b55 23a9c2 82aaa70 4c5470 5304f1 1345df 825aa93 852a419 8760bac 596084 829c04b 2620e0 8769d39 5be96d 55f2b2 540250 4bd7f8 1f3d94 844b67e 8395266 82f8560 821a497 5bf4ed 4136da a6811 86fd272 3735df e67bb 207046 30f9df 77690e 4facd8 83f8a1d 4813cd 5ac6dd 5d3e41 441406 82981cc 8068208 53f07 87240cf 83a0cc3 642f78 83a9763 406e03 84a6a00 5df566 82bbcda 8356100 812c2dc 5a59c1 52adcc 227fe6 5cfa34 5cea89 82dc3ef 74b229 343cb5 5bd8af 4819c2 842e679 2f9279 8152ff2 1ed063 86dc18b 21df34 1120a9 1fbaaa 840a311 158822 87a569e 33560f 4af7e5 850e907 80ff23d 75163c 54913 792ffe 80c9375 4c2255 253607 189fc6 76c2e8 813e430 3144c7 21df64 82ba563 2a644a 5dd5d1 53b9dc 877dc54 816ad82 823c37c 815035b 77cb5f 6e452d 62038 43432f 82fb38c 494a95 352118 17e541 80671a9 844080b 80995bf 85418e6 150a7 274f16 83b3a90 807295e 829005e 872dc74 863dd78 875a450 8586463 85ec95f 3aa52f 831c53c 8219e09 844307e 86740b3 6a485f 199413 83dd46d 839d317 434941 1ea05f 808ed21 8707f0c 78718c 53a9af 87464c3 818c5a7 30da44 84b59b2 81158fa 341171 849976e 46da72 5347cf 570633 24bcd7 589937 857e936 17b3dc 200a6a 6ee64e 8172e91 844f1cd 386704 527d79 6297f3 836fe3c 56d130 817cb77 46ebda 826afcb 49b444 8492cbd 6da0ff 414c44 80cb7c8 857870a 28ff85 372730 2622d6 85e246a 5f6d62 3f5a65 67e541 7995ea 18dcbf 859df35 82cedc7 832a694 85bf71c 4d1d04 871fd71 285503 8205f2a 81d9c15 3e08d1 827d5d5 43043a 407383 768ff6 713faf 870078c 8147719 813436e 44b400 3d0103 215f4e 68c7d1 6dac85 862273c 4aec1b f651f 86eb55a 865c74e 821a4e1 e593f 838450e 779564 81fc36a 6bb1bc 65dd27 864804f 681887 80c20bb 333381 27512d 493ee4 28cd6c 81ae5aa 8141d09 61c393 809e0f9 3783b7 8269d72 1a5f40 866b966 75d6c0 522607 5255a1 12b69e 5ac97f 33c2ad 8235dbf 2e7e22 8284461 47e9c8 5ba364 8639ee3 27bba4 6882ce 83a11ec 84cc81d 8182767 2b7fa1 847b194 8350253 5c39ff 84ea89f 2f2a82 812050d 7aae16 87b384f 71cb99 83d4e9a 80bf3b0 85f8b2c 8658a9c 6e6352 614605 53b9f3 857bcb9 705324 1a618f 81ea140 339050 467322 40cd9 854a693 8271ed2 3035a6 85118cc 8791c9d 85e9725 760722 8745aa2 4fe3a0 8083ee1 4af023 803d92a 3957af 8020124 50b9ce 869b3a3 384587 86bd004 711661 7506da 46876e 8159082 874c91e 700a4b 10c590 34e3f0 8505ccd 817c4b2 18523f 8188607 1b8bc1 202b02 787fa4 85b7437 1a0819 17e217 847d3e4 8584204 85b81fc 56a9bc 84dfccf 82157db 83cf23d 87220ba 820fdd2 7532c6 268efa 20e60e 61de 85ace50 81baedc 8458bd4 869b025 87157ef 86d23ff 867e0e9 2d5b6b 83bded9 80e9db5 77207e 83b34c3 224fdf 2e43ea 840eaf1 73c2a8 862d0cf 841368d 3655a1 8011820 83c84f0 397f4f ead11 8681770 81390ea 846375b 374276 859f38c aea6e 83dcbc3 86096f8 64378d 86a1ddc 86a3e8a 4a61a 3d61a7 82bdc1c 82d8656 16dfd1 8774d 8336e45 512d20 873a99e be773 b2216 4eddbb 82b44a7 825d25a 83f5bb6 26198d 808460e 84d8ef9 82f5a2f 82f7197 81518e0 51be9c 13ca25 81ca53a 8394dff 173ca2 489503 8674e44 8383949 87aec9a 20ef9e 7914e3 4994e1 205b00 842b3d9 8479681 867a9d8 5a4d9f 79a746 21bbe1 85e85db 75f59 8780b6f 83dd31d 829d0c6 863f4d3 58d672 397821 7e640 8029378 44a4cf 8108402 5628ad 81b54a8 83eea76 209538 319f1e 843b9ca 37fcd 121a4f 23a07 80b772d 2b4a25 86c8ea9 1c51ae 80f9aac 8002b3d 867d438 82e54da 6d9360 810e132 6ca2ae 83eeda4 858982b 801c3fd 7a7bef 8734161 8651e34 831cf0c 84821a3 8426cc5 5d81d8 6532ec 86ca0ed 2c1d21 839d284 b932b 7a8f5e 7b16e0 85e5056 3d465c 446022 8074c54 11e36e 873735c 81391b7 6d795f 64870f 8220fb9 857109b 587362 746b39 3f4bcd 331183 204f0b 8092ee1 66b78f 86bc64d 815816d d7d92 86115bc 831f21b 557629 d5ba7 1f3e1d 738286 84c0bd4 4a3fe3 4ec797 565252 80347a5 8583cca 4cd6c0 849ed47 849ac2f 5e830 d0301 802d6b2 802bd26 853280f 4f03cf 45367 8393364 86bd8af 8747346 86289ad 8073e90 87a8df5 83e3e1e 85a12ac 2d2e13 15a52d 8084f8d 6739ea 8112757 1ee51f 502fd1 317a3d 80ff5a9 82336b9 86a3101 5a3837 6b8412 8268433 811791f 91f29 443b7a 83a5f68 8410d0a 4b8bec 853bd20 3f92fe 8642ddb c0b8b 8535402 1462f8 587cca 800a319 37bf60 833bd8e 814b7d0 80c9b10 837bd87 391189 1fef7c 43ee21 816d15c 816db79 48d224 5e54af 1b559e 23ffa8 73eb89 7901b5 2d3ae3 82ffc9a 5c0eb9 82369a6 853558d 59d715 a8975 8674d50 81092d8 2f5e56 82b080e 8488046 4ae6d2 77a178 6c110a 8494e03 bd9bf 6464dc 16f0b1 80da388 2de1f 2ecf02 82dc715 8258832 87193b9 4b3aaa 8076aa8 77fbf7 1b06e1 5b7f35 2fe710 805a635 19d9ca 823874b 7eaa5 811f206 6e59c9 10112e 8569d4b 6b6c41 46c1ee 727dbb 3570bc 80e0182 85bdf9c 80d71cb 80af4e5 875cac1 109eb9 826a69e 893851e 89f6271 8071553 809953a 892c588 642ec9 8b00fee 1a78ed 5731f4 4ecec0 7ec981 86d9fe2 88fb56d 8288a44 92329f 8035622 a5658a 81b8887 85375d2 8066be8 878f880 690c02 84e2ce8 805e1c3 82a5a24 8016fa7 d1433 8138f7 132e5c 859083e 81b0bdd 2275ee 806d72d 3efd15 73729f 44d2fa 16cb7d 890e8e 40dd78 51eb0f 295621 2f69bc 83b087e 514566 7ef556 2d6bae 801945 42f25d 8400928 4c83d0 a7fce9 6e11e 8494b0f 840f88c 8124be0 87856ab 8592433 80cb80d 70abba 8444786 3d2f24 5e5bc3 4a38f5 855f451 84601b8 63089f 87c262d 86d3866 80857fd 8309760 833544 675927 88ed4ac 82ced8b 247840 802facd 8127606 89359a2 3264d2 d907 6baba5 31645e 310752 4b74bb 813bdf5 8433ecc 612314 a1448f 52e14a 4a4a6a cc077 809238a f2731 4df448 2f1312 80c42e6 8682274 8178928 80f1f4 5ffe38 801862e 86b741d 839b0ba 3ebf6f 5c351c 837b702 54e76b 8bccee 84867e3 80a9d62 80ef1cd 2addf1 441933 88478af 8246542 dfa51 82ddb4b 89901ee 4001e7 77873a a3a687 8000ee7 828d844 8733aaa 7a2660 30e786 364ed7 83951a4 1f470a 85e8030 3904ed 810b2fe 3b7fbc 86326c1 86d3ec5 1a6390 38785a 63810b 805c3b 82f4106 88d3284 3db5db 828ed77 8536719 8285878 8634bfd 54ed0e 53c1f7 259b92 82741ae 84b86e2 24cc8e 725b8a 23b6fb 84033f0 5f522d 6fb0ad 812ce28 9b455e 80d0213 830cfd6 2b8e79 82b5dff 28446f 30b881 80df0a1 383f7a 849e5aa 8325b5d 8bdc64a 614f21 822e41f 3e0c5f 8642ecb 80a53cc 55e89 800add6 702c8b 835cc15 82952dd 84ddce0 889b2a0 176f0d 8186522 86ad55c 80edc78 128b6d 360db 20b35e 14d338 82422db 87f82fc 830b7fe 834d2a0 87441d3 3b7e43 83e48e5 250c5f 85be5d9 5678e2 22fdf2 4667bb 93049c 86108fc 808e460 844ac5e 40d6f6 7eb8b2 846e058 8706fc0 8313294 845bb37 7d394b 821f66c 36d166 aa03a5 1d45f6 2cf5db 89006aa 59485f 20f26a 8712d44 86ff55b 86334cf 1b0b93 82d1fdc 594e5a 82bd7ee 2727e9 4c155e 87c7d71 84b534a cfcdab 86de2c3 62d107 3434ad 86b445e 8116d74 8002a19 8503323 845174f 81276a9 8755d2e 4cd3a6 7cdc5a b6eec 82f76b1 16dc7 833fa25 3dfc6b 4ff9d 1fb5d3 4d0b0d 3dc804 90d9e0 4e7a19 3a4dea 398ac1 830f47b 2d827 8228906 85a147b 8030ad3 1e97c9 8696c17 86c2cef 81a4b86 8138e3f 8563a8f 83252a 5e9d5b 8066716 8570067 dd7a5 8331d95 80311e1 8345b37 823219c 97fc52 83d1edc 3a97d2 87b8dd6 68c4df 877344f 7e1eec 800b5a3 77f9c0 8020818 80b703d 322d2d 3b361a 84e5b3e 1f19c9 903211 86dcd9c 856e587 868abf0 8152998 820da5b 78f305 864fd12 81d8a62 5fd0ba 82c18e8 45893c 6639f0 80a34d9 9d51b4 85dbd0c 89de0ff 875ccb6 77a2f5 322fca 82fb4ec 854b267 735983 34514c 14be4a 85d2b48 86ec73a 6a46be 1474be 85c888f 213aac aa084 868a1af 38e0ff 67fcd8 83de6a7 73a7dc 831d13b 80029ea 84bae91 80c5748 65c83e 8284335 829635d 877556e 1f575a 3147ca 887dbb4 6b1a28 7c7285 44bca3 160fc1 838836f 80c6f3a 3173ae a01e92 8400912 818216 112e6b 7c3a4 695322 81990fc 83ec0da 61b132 809b9b7 82bdd06 5e4fd 80035da 2bbf08 805bb58 8033af0 716407 4c2631 827f12a 83bca9c 8828ae5 82cee4d 55f42e 84eb70d 803057c 82688ea 83996c5 8582402 8216ad 80b676d 829b736 82ed4c1 28e5ab 6a76a8 4c602c 31686d 5cfe90 82dba76 842b6e8 19cbb0 7f3d10 40b0da 8565b63 458710 57b526 5dd4d 802c682 83a8127 67923b 4ddf21 1c33dc 851ccf4 2abaf1 80c94c5 80e9682 8647d4f 86e98fd 877d1f4 826b03d 8018498 88d5bc4 8572de2 4b4ed5 885ce47 534730 85ebee7 841c67d 367540 43c8e5 805f8bf 5f7dca 4b73a3 825f7aa 1e8b1 71dc10 838114e 1294c3 8020282 81744dc 8233653 2c6958 321c51 1c3a2d 819b660 69891f 8498f12 60ad48 154098 8239af2 8527875 84882ff 82bb0fe 7d317a 28ce2a 30c284 861f194 4992de 177120 27d045 53a141 42a049 876128 8682d76 85dc53a 838293a 8269f87 82d3427 2f1085 45dcb7 2bfdd1 839d5f7 336ba2 6f49a2 5eb6ca 85f903a 80ef3ed 821fea6 86327bb 3ea68b 741c26 84d9240 8645b91 83627d2 12d8b8 87bbc0b 8687f42 85abe49 826b946 41c019 862571b 123266 60f2d3 6ef9fb 83010c2 83c6270 39a4da 34b9b0 2a04ca 82209c8 be610 1e32e 6dfa9b 1f4e25 1c5056 83553a2 87519de 67169f 85b4966 4b7e58 700f01 80809dc 782ba 2bc0ce 7decc6 375673 8627c43 45f531 3abae8 821c9f4 6b3da4 6ca769 8447b09 dbbf3 87379d5 7ba6f1 85c097b 29d312 86eb846 353a07 85c95ed 69f5be 830e28f 4247c2 605b3c 48d628 857e670 428ca2 92c70 aed03 8449757 8207d4e 5eaec7 1aa44 7350c0 81b9ce7 6a1e71 79f0e8 8293575 81f95be 83fe1a3 81dbc3e 5b5b 84b3df5 6d889c 81780ee 6e78b5 8345b09 83543f8 87afac0 84f448f c1c5d d3d0b 808c23f 579932 8155cec 48847b 75e5e8 a9c3e 824f2d6 830bdc6 6b3075 360427 4277c5 8a067 68369b 26cc6a 8700343 87b7803 2deb79 82d82e5 63ad15 496ab5 5e5e02 5077c5 25bb9d 2f37b6 81b7b36 8159852 58fa98 9d469 13bcb4 6aea36 596a5e 856ec93 845c6c6 27ef9f 1e57e8 81c14e2 3edd70 26085b 81a6715 717122 6a2dec 8757cd2 3935e2 875b740 8403300 86f0379 356e29 13cb1a 8317902 6ffcd3 84e1df0 355a03 872fe79 804de56 1a4098 84e9ef6 81f82ef 80dd5eb 87b9ab5 4d445a 8462b05 8563e55 564b84 81a4547 5b509e 755e09 3ed110 3e6d6b 7361aa 8490a30 842d636 760631 835614d 869b8b1 2e044 7bb958 703981 805a45b 85cce5c 61584f 6ff729 4bd1fd 31a54c 1a44cd 6064f3 73d86 5456f 71869f 83e327f 8054a6f 1a4f76 66552 8487cc6 74551f 699def 860f756 6df7f3 5dacef 819188d 4173d4 665b5a 4fc8ea 546894 2f3347 82d7d34 3e2136 32f234 667715 82a0756 2df6fe 8186979 8500eaf 8553f62 6f52c7 845cbb2 4767ea 82f1606 6a63b1 87b49ad 85bf636 86d17a7 22e363 5291ec 81f60a1 8632bad 83fb03d 824a17b 552408 791abb 85151b4 80d8985 80e9722 1900b2 81fa25a 4ef16f 6e89d 65f267 82d4bf4 4d44de 4b79f0 806a02a 835710e 5c5178 86ab58e 858d278 657c09 874f169 86e284f 81d3c3f 731d23 85f4e03 834205b 81a7ddf 69b99b e4189 75f1fb 776c72 784c67 82efc45 817283c 812bc0c 8176405 251ee3 81d160a 60b76e 5da04c 8264103 3f3793 183571 8338c70 86468f9 72d47c 87149b4 3b50b4 444a8b 84ea54b 55e745 80f2b7a 820d470 840c10c 46c353 8210da3 82e06c6 80d5cb5 23e5bc 5305ba 80c05ba 6d2928 6524b5 e0abd 1aefc7 85ca8cd 838dd27 9bcb3 8755e85 8600bb2 25e94a 6609ef 577622 8191e8b d6a8c 86cb12f 8017576 823fe73 72b73f 65e9b5 8134942 800abd8 806bbf7 6829d7 8389e3c 665bfc 87896a6 86b2f7f 832404e 3af7c3 81553e9 82ffab6 63a0dd 32c323 849f899 717a9e 8215fe3 86c0129 85bad1e 82098ac 7074d0 8070559 81e5350 83bf1e8 84dac84 7483f4 8274e9d 80f4ae9 85d5a53 80eb0e8 84297de 27fd66 445c5a 373eef 713c8f 479458 8092c0f 743d7d 4e55ec 602f9 82070e2 8417b24 6eeb88 8594560 826e4f5 81d3f1a 7754a7 82045cc 87280dd 12b4c 2b9e34 8135b6c 82abb58 847a418 85e0935 853e357 82cbc28 86daf64 f898f 857e510 831a4da 619359 82a57bc 3eaeb0 715f30 818b4cf 74b1ad 247ea2 30188d 1e5679 853277d 74ad82 87490f2 5dd403 215158 84bee6a 2cd14 6a99ba 849ea41 84c0c9b 3f1bad 352c74 59ff7f 8401e1f 79e040 81ff940 85a128b 82e76e3 519c48 30c1e6 8417034 837c197 8007769 e7d96 86676a4 5b90a4 848d182 841444a 2a5d78 812f7b6 3306e1 836d30b ad1f0 8706033 3c3b95 8169417 8004146 844cd32 812e82a 4fa12a 835c3cd 864a390 440ec7 8680684 68bbc4 81a85ab 86b3d11 670398 859f253 848c7f8 6b8815 8037dcc b416 81c379c 8491060 615538 56e17b 556d1f 837f680 38fbac 808f738 1ec299 2d67e 8669c09 80564e8 43bc9f 868109b 471262 824e238 85fd2b3 873cf8e 854ece7 1f2f4c 87a60bc 4145f 4da985 56da79 9f1f4 3c55f4 30519d 8118344 5dcc82 8370dd4 85fbe4e d8007 85546b6 5e869f 30830e 84db2bd 8729023 258912 6773d9 405ced 278302 8433c06 474141 3f78e6 47255b 16040a 82f2152 81e70d8 85982ef 6aa951 608732 25046 80b4870 fd147 82c78c6 1e0677 84a4706 6e4f1e 81b9c1a 508537 22842d 80fcf68 82c5a15 86a58fb 8179937 589b77 833c554 19d0ff 8776505 1d58ac 6c0c23 4ef7ed 8770c12 85d807b 25273d 2570b4 8793164 1b1292 2b2962 759ffd 87692d3 13134c 83eda51 8192062 826e4fd 8501124 62a41d 85d95d5 86a742e 87a4b74 502776 8147d3d 85b5c26 802d65f 41ae1b 8019b8a 819f021 54d164 30208f 8697490 80ff53c 2c05a8 240390 42f125 75450f 86d2d69 81523f5 711a10 3a5676 53f22f 8671f17 8384b1b 784abc 811f8c7 74d97c 83dd620 219805 82ff8a1 80390d3 86d94b2 6d5ee9 82ad82b b1330 3367a1 673c10 8136e97 8641063 70d2a6 830475d 86b8924 812cf9f 442080 871c851 812c1a5 519d43 2a1c56 687f8a 87b9507 80e4d8c 808734e 5060c8 83db613 8626a 5bba41 871441c 70991b 2c1c5f 82ee4cf 5fd49b 83ed765 3bbb1a 86b8e68 868fa7e 571913 2cd786 3439a 832679e 86da197 82ba749 82b748b 873c32b 8780c07 829ec0d 8780def 83de7f2 2e5b3a a911c 8127af0 b63c7 22e1d4 87b5c4c 806cd18 84e5c8a 6da6b6 63a601 72ae51 53cbb2 829f77b 4a539 86c6e96 835c3fb 42bf63 8136542 598aca 8626210 23f103 776a64 144e7b 80e2a01 455c59 83bb908 3f9e2e 3f1dd8 435277 71f132 824ce9c 808fc84 8396d77 384c08 86b5927 c92a9 856c781 89d5f 2ebbda 825c4fd 3529b9 3840a3 31095 4b6d6 8182da5 70c5f1 1be41f 806019b 38dda3 575ed6 2afafa 426eed 80712f4 25565e 66e02 3c6874 8004361 1d7326 80efd92 858f7f6 80e0589 36d1d7 250b92 81b8229 1ece53 2ee735 85824f5 329219 67c881 40b0f5 578060 83d2727 81aac1c 215452 87579c8 82bc6aa 806ff77 8325926 816d1e1 550c33 18175a 859bafc 821d134 47e584 825a455 83132a6 373edb 8242601 5dfdd8 8071450 150521 2479da 866873f 11d4e5 44bebf 82282f5 81185a6 80890b1 2a2703 e41f3 1d5f12 3583ea 80dc52b 82f7d32 207091 39af13 82f8e0a 628dc9 917b6 81c9778 504347 1cebad 34c56 855f2b1 201020 7ae46e 215c1e 3688c3 4545d2 8028dcc 6a6bb7 80cf506 845c560 47114a 813829b 133d9a 1616c 85068d1 6818ff 810415c 2ce0f 8206cf1 8702442 82d6b50 8b7c4 2220bc 8297299 e016d 3e8a5d 85a9409 8596aed 5503b 80d717c 8dac5 6d146e 80a2e43 46b555 832efca 2fc652 81f7082 80d3e90 15bdb8 3e7d62 801486f 38cd1e 8382d6b 665ecf 84b4e12 8504c61 484107 7968b0 4cee96 4489b3 82b5173 8482d37 111cdb 2ed10c 17d5ce 8655759 4c8a78 8089707 19b377 36f2f5 81bafd7 85e7a6d 8727c06 475c0 e58f8 8566752 8125772 8751e5f 87825fb 4fc319 482f9a 2e2f6a 80d2ccf 2b04b1 400d63 861f2c5 3b13d5 84fb6c5 8456dae 21c236 8239d6b 2bbd71 860687b 171148 8444143 76ef1f 87b6c59 86b86a8 85a69bf 8541929 80c6c85 80718ca 81c34e6 4c9c75 47c282 8310731 84d00eb 829257f db567 781e53 863360a 3410a8 60547d 8244da5 793509 82299f8 81421fb 81b864b 807ba5c 2e34b6 1f42a4 4d63ab 15b57c 84072b4 4e72d2 6900d1 26b586 86f3e61 81384a5 ae745 851fac2 8744231 734b71 85e5f3b 825cc2e 58e85e 2fcbfe 83b0665 8390c39 85cde6c 81f4252 12f828 3115e2 25c0a9 82e97cd 820fdda 85a8c5c 871f84a 396ab 6c2c49 87545b6 849a7b6 377a3e 8203802 75de9a 851242a 83ead9d 83c80a0 3af68a 447088 631d57 11e14 859f9cb 816dca5 82d8e49 8001927 85491e8 66d0d8 806ae9f 79dd5a 83354cc 8424b75 5f8512 821450c 8056bdf 8472f23 8603555 1aa70c 80c721b 82a3886 e8c6b 375fea 85c631c 39be17 190607 cf07c 856d539 1d0183 85c86ae 3ccfb1 85d1b9c 8661e16 251f1e 85f5dd7 8062689 4ec7da 81363f2 81a304c 83efe33 846815f 73515a 81802e9 82b8c04 85eabe0 1b8536 bb2e5 85f4e55 227900 85fc15f 8460989 4d6e11 6a6923 71cf3f 825868e 149fcd 34dd50 81762bc 874ca8d 810065c 6fec8e 3294ef 844119d 81531e9 86b59de 13dba3 58ef0a 8440ec2 83089ba 82e9cb8 812a86a 68ddd7 17c637 53f87b 826bbb6 6e4f21 102930 6532cb 7ff14 223438 4be9cd 8688b4f 85e1b98 6c1635 83e1c2f 4a44a9 86859c1 8468a9c 814f538 3d65e6 81bd952 869f7fe dede2 4f8f9c 87b8a62 86ea619 72836 685d90 803cf6b ae2a5 820c33d 10cce7 862366b 878c7b8 85bceb2 80517bf d670d 4b8ae7 84fb1ec 838aa37 7918c0 81daae4 84dcdbf 841b7ed 3cd86b 44563c 83af9f4 8142cc8 84c4cf6 40c276 813650a 8363f7b 4eec1a 593cee 6b43fd 6ef017 810b898 1d001d 853cd3c 83ca3a3 6a240e 1fb387 183fa9 68f40 30ac98 83a130c 80abc3c 27be28 6fa1c6 810249c 2c8fc5 2c655c 635d33 8516c5a 77b4a0 70d7d9 82bd5c0 160cdd 8367ffe 8086959 822c676 55c6f5 83dd645 21574e 602ee5 285a49 2a6bc9 1c2abd 865b9a3 336ab4 6c3e19 425652 822f8c9 838e2fe 70eb84 82c059e 8710978 490060 838163c 4d3aa6 819daa7 64e608 8378366 805d361 8f3f5 835062e 84c5787 6188c 832c15a 81e279d 874a46f 83e81ed 45143d 86ba244 4ba6c4 7a1d79 8235ac3 81161c5 40d69d 8488db0 828aaa5 5e7ca9 86f5bdd 84f0c47 80af902 845427e 81e5e3e 4034bd 83a7466 643458 85a83 86c3178 4445af 32e1ee 875bfd6 3922f2 72f9f8 5eaf6d 86a3072 e1342 66ca9 808176d 2513f 6914e 1200ed 26b5f3 85df184 5593e5 18b20a 6ac71c 861b9fb 1c7a53 5e25ce 821f3a3 8105bb1 854cd4e 81bd28d 727044 81b5497 84510fa 2bd802 81fcee1 81ba81d 8086d47 87a400c 5d1e0b 3251fb e6040 23036e 9539d 807cf2e 109ec3 132d82 8698d89 8208ddd 4f1e81 71affc ef727 86b4926 821f9ae 6403e 8596638 832145b f8fa1 81691ac 86e7488 81fdbac 5446bb 8209f90 802d3aa 824329e 87acad4 8366576 70ddb7 45f690 1d5fec 8157f1b 76b13f 80165f8 85e5275 87615a7 1d7c76 80a08f8 6fc8d8 8191439 86c97d7 8321148 3b7304 802c117 50a044 83cdea8 2dbd6c 69b0f6 19cf81 847b6fb 82de33d 83afdb5 103c7c 86de5e3 1a6031 829c534 85c7c19 86a6446 737af5 836be81 80a5242 8620dc5 8151dee 672a77 817a81e 82f2f6d 8184810 43cae 4bd793 3ebafe 440667 171c2e 8040a81 5f0f3d 8607326 876e99c 85e6d6f 8237fd8 847b676 1cbfe2 86380e2 2d472e 2750b3 5af6ae 83d7264 1040d 845fb27 81930cb 83ab3e0 838d9a2 69a03d 85cdc05 85dbf07 67eda 642dfc 36c76b 8716e4a 84c2466 848989f 81e1fac 8623e1a 5fc2bf 473692 1cfa4 82cdbd0 82d9212 1416c 4fff71 1d299c 85d65ab 8691eb4 85168fd 854374f 82ce8c3 82f567f 2e7c12 8245b2f f4759 868cf9a 22694a 5af5a 161a38 77fc49 59fc38 2a890c fe8c 82e596a 859a086 856c591 8167a4b 69b47 86874f4 878a80f 86f0017 809c106 232142 826c942 801b52e 812bd57 d060b 4132a3 35bd44 86813d0 83f7ba8 87b06b9 336918 82c216b 2bbd00 3f5cd 80f4454 85f1392 80dd47b 836ce83 82cd45f 75c721 3b3af3 5f8dc1 814be57 2af123 7764f0 227ca2 256dd 80d2dc3 791dde 356aef 85a6f52 491394 842875a 855f358 faa87 45ecbd 5bf868 8569795 455f63 810d893 1b768 87ab285 3d823f 80a862a 5e1176 11a0d5 8292dc0 43cd64 668562 14c180 838e162 83b0a09 2a651b 6b9f6f 75b018 265d91 1429ac 8733c40 af361 85eef5f 79c898 80525b1 4b8262 67e501 86dbd60 87a0ed9 18d02b 8540d3c 307661 8158829 85bea1a 83a3bca 75c4b8 862b4f1 65f385 10c5ad 824c4e3 448370 86de662 8637cb8 27daf6 82cc58b 3e0f6 3d0ea 6ccfb fb011 873b621 4365d0 eaa15 809e8ad 83e4f51 aab33 4f3ae3 82e31c3 40e7d 357c5e 3b6a80 8157c97 81cb762 83ab9fc 274e20 43cefa 80ae8af 6fd961 871f9ac 37e77b 875a583 83ba0dc 117f22 8211b19 82cc6bf 83d62e6 84ddd15 426fc5 8464958 83940cc 80f30cb 8740396 80a7e56 30450f 863bfdd 87543e5 59c7dd 837b4b0 8143636 8693261 864681f 7a147a 20de1 2d8e4b b2493 861926f 372f0e 77d444 833313f 844a0e8 849987b 16b9c7 2ca36e 829b62f 8542765 83a8e45 863b704 834307f 5018cf 8705ec7 5489d5 b8667 590ab7 69ac14 86ae8d1 2a2567 80995ea 5b5b58 86d8beb 84e122b 217f4c 672599 232e8a 81073c5 25ccf8 861da77 8591ad3 86c2195 400b8f 835abc9 85f876b 78a2c9 d962e 8090e4a 85f86d2 274e5e 8288ad3 46a94 6f8d7c 754ba8 386c2f 81ce6f2 53c7b0 8730ba8 80a34d6 6f5714 4b7ba9 82a0a 20f6fc 338c3e 826800b 822964e 707b2d 86116af 8299d8d 826d3ae 86d4827 81fe6bc 147e 8369c10 8314b69 721138 80f310f 815a5db 5138ed 81246f9 823dfe3 25817c 26b152 1651ad 845e771 869656e 8598876 688e28 439bb2 824de84 3cbdef 25adc1 3d9e7c 23bc77 528bad 818acdd 85d5174 8402f71 b15d7 1a6aaa 211a1a 860f100 849e2b1 3c5e0b 6ad6c6 840a53f 8503007 68ca75 8326970 8236b67 b3f7 723b26 830fc3e 8505069 86bd34d 2fff7d 862a424 87b48b7 82289fe 84d7ae9 4e6460 32089 64f05 2b4441 6844f7 6389d8 8668f7b 86b64c9 8591d92 63578a 47106e 80d540a 86c546e 84e9e69 845f2bc 8383405 4ad6cc 24f671 84dce75 101d8b 8746a 720445 6083ab 5d6756 687d55 80dba02 13ec04 8141147 83612f1 5e4ef0 86fe1e5 63f950 543585 76348a 52e635 5fa39f 85a62f4 82458d7 36d495 2b6cae 83bb112 8715941 807f5ca 802c222 38fc27 8344ce1 8548c1e 57e64e 84d649d 8236b27 62a18b 32d920 2fd688 ecb0 8188fc1 3a3339 856fadf 5eac54 8380279 80f4747 85ffa31 84a4d95 8530f14 4d5129 801bf94 81dfd4a 13ea37 8186a 83d315c 9c300 8394a99 843a683 84a0c60 806db8a 83d5a59 13d4e0 851f0c8 7300ff 8137010 808c718 84dfcff a11a6 85b5710 4f2ce2 821621d 3c57a9 38cc6c 8270c65 851bea3 83089bb 76a12e 872576a 83aa412 61f32a 814629f ffdf0 62e42b 56f423 4f83d8 862ac8a 3b9fd5 8354671 84c348b 83aa93b 24c658 8027f9d 87a194d 238ab8 85c7885 530fe 859108b 2e76b5 85cf254 550e6f 18ea84 867453f 841f261 2cd4c 26da6b 83c5029 6eb028 86ef3a6 81e0de6 558d79 364738 7a3b56 130b67 2972ab 55e8b1 83f8c96 6499da 825060e 641e4f 871f404 3043fc 80991fb c4020 87b9818 6f8a47 57a785 8307d45 82e2207 8697a42 5aff07 827050e 86173ca 86d24d0 822f63c 8459c6d 13c558 800e8f1 8086224 1aca46 43c52e 70fcce 8183095 44c890 8514615 666973 82918a7 8114cfd 861fe4d 84033f4 51520c 12ef78 802b92a 312562 1bb28a 80927c5 8578c21 823914d 82dc63d 83148fe 82d4371 fb262 324ea4 86dc321 86bce8b 8285397 87a06d5 25295b 48eb79 856554c 668ffe 3e396d 4df15b 2609b2 82b7db3 59b33a 83d8805 8262bd8 81d28b2 84ac600 76cef0 7af171 779288 356aa2 824e457 1daefb 2cc278 33c1d9 85fef7b 836d285 83a00b7 8731e8a 774cf0 da59 801e59e 85a3a37 87bb1ff 83dab6e 64e53 653dfb 8475511 8291528 83e24a7 8624293 8565758 839a2ca 1e9cd5 8489b43 17607a 8328605 806505b 81655ed 6302bb 6b5748 72ad95 31b3d4 15814a 72b891 5a1d30 2205ce 8105836 86b17c0 862d5f9 6127fc 82ede19 81134e8 31c618 86126fb 85dd73d 83e17bc 1db580 3a5266 852c430 80ab019 57d428 8110471 4c46e4 86240 86377ef 420621 853e584 247a96 2b46c6 87948ee 29eacd 5c9a8a 8414dcf 1a6f72 81f2e7b 8760d52 325a1c 82e40df 80c4666 4e7083 246bba 82513e1 3a2a9b 83fd952 8242865 567b73 382dfe 847cf5b 602a37 1c55b3 86841ab 3ebcde 87622c0 223cf8 45b138 70ac9e 97fb7 2b3912 8750053 8264317 858700e 81f6661 76117b 1b2738 8243a05 83e6776 72d47c 6cecec 82ccb55 807fc39 194b85 84832d2 8226585 802e8d7 57d8dd 80b55ec 28ed15 2f4d32 84748eb 8644ee6 3e7f6d 57ae61 520e8c 1d1936 82c371f 80eb713 81b320f 82de398 857a2e0 8000ea9 87a0cf9 84b6511 84a7b98 69e9fc 5a7359 859b5cd 8055160 815621f 1dc063 a3854 2b035e 8039cbf 84b4c02 46c82b 802be29 85873c2 43ee94 862cd89 2c19a 843184d 81ea863 8445880 81f1246 6d4d46 870bda4 84cbcd3 4b1407 8078ac3 860c4a6 57f046 170d24 797a08 863226b 2482a5 814c5eb 439574 830d2a7 29ba4f 87491f1 2960ae 8311f5b 59abe6 8704126 8247374 8230694 37cf66 84adf3d 874623d 2c4731 8111fab 812b712 84e4f20 86a7a2e 2bf8f9 65eeaa 82ff81f 732462 80d6715 86b3e0a 33c6ad 83d0170 874b53e 3e1178 26ddfa 47f95a 864e151 731ed9 72dd0a 6f3fd7 2d64cb 6eedc3 81b33af 8337def 86c7d4c 8302557 865febb 6d130e 3d0bbd 820986c 6c217 78d3fd 1b2935 305144 84fd81d 20dc14 818aa61 8669046 f0088 1b63a5 8140b82 863a75d 854a657 63a8fa 8161b75 36f3be 3601a3 229f6d 33ef1a 868e3b8 8443775 35dff0 80c9352 82eb68a 6f0248 8328ba4 822ef80 5852fd 826791a 718114 525fa3 13c79 46087c 85e08e1 7ac6bf 80e0251 8233da4 55684c 4696a5 3b74b5 869529c 802b9f6 5eb8eb dac9a 5718a6 84188df 82d36ac 4d1f16 2dc1b5 82cb225 83e25f7 5ed66b 25e619 834d0d3 86b2858 8499129 8020cf3 8024ad5 84cf38a 3cf275 7119ff 849e49d 8083774 8053fa0 8594c6c 3213d9 279b7 8707726 78df3b 818ade4 712ebd 455677 8181b6e 8542db9 64b939 83ca76c 1d10e2 81bde2d 3dc203 80e9f38 1c0df1 84844d6 5a8222 804c387 873bb3c 870f28e 45d51c 8373b91 4345a4 8298893 47a596 806e82b 83410aa 1b872f 511b80 667078 83679c1 6b1c7c 85e8203 83c2ac4 552bf 3ed896 35db89 17c6c6 7899b9 8444441 185b27 55cf42 459e7 84e371f 876f777 3c7276 412fc2 84e09a2 856db96 314130 875eb5d 743767 84f88a1 81442d9 6feac6 1b0104 5bed16 82bee34 80dbacd 827c0cd 86beb9f 8022265 859c4fc 4aa048 83df387 86002b9 19b98 5dbaba 565f9a 2e718 854cf8a 8300fa9 4e25d1 81768e2 3401f 2ca0cf 2a977d 82abbd5 82a92d6 33eb5b 68b9d8 8073bf1 345e3d 831b269 77b0d0 777631 644d0e 3038ad 76f571 87469d4 872f8f0 81123ed 83872b8 854c996 87621bf 85c1c31 804df55 849841e 802ee0e 5d9c 87977b4 80a6f7e 5f2cd7 8187dec 4ebfe8 55c345 83c62e6 17052a 48cd1e 49b72 827349d 81dbb7a 769ac5 81c67fe 7842e 2124b3 8685683 825c104 4351b 8216746 c3a84 84c0190 11a3f4 857692d b873c 99d1d 2a0269 710050 59c389 8527698 163011 31701c 6bf54f 8569ff4 862ef81 17ed4f 8380dcf 86eca73 815cd3d 86c9ed6 581982 846b33c 200ce4 11cf41 59db73 1cc791 84d2d58 86026bc 84608e4 869df5e 8668606 14f338 84d8b72 8723a90 5b2e69 84072d9 46e465 35cfa 4b5171 842021f 4cd68e 82d2184 b1e2e 7d89d 33ada1 cdcf9 11fbd6 53ae8c 57657d 193f76 3753d3 80a0383 816e098 208c39 3c50e8 82e9f70 8040ae1 255fe1 87d6d9e 75ed05 82b569e 3f179b 724ea1 879d062 4763c 5bc9c8 52e7db 8671366 862449c 17ff42 8155dde 837f718 8416052 743b67 400341 85d82b5 8685114 765dbb 210b43 1321ae 1daf1c 437e4e 30ff06 871dd63 80ec17d 828527d 73df60 85f979d 541261 42c24e 87c1b49 27d3a6 81af547 83bcc54 8578453 872b33f 32d17a 378b34 3ac1c7 85cc300 80b2f0d 26fa8 19b4eb 8254b67 84e3052 84172d1 68528b 9b7e7 82309a3 599878 2e01a8 449654 3a3099 823f93b 83d77c4 6940d6 2233f4 8790c36 2eb572 516ade 863081e 863fefc 836bf6d 3576a7 346963 5a44cd 8481973 853b329 82f2939 8593498 817824c 792449 5da930 6d76b8 811abe4 72abbb 46edc6 560d6f 85d291c 81c25cb 831bcf9 82d4386 83df1f0 836e096 54ed13 831578f 86b4f43 87a2e09 277ea 5f1a38 c7056 68c7eb 2ea74d 3918c5 4f67bc 80e2dd6 2293e8 19d4c7 8292cde 814db06 4b5ce6 3c675d 680b3a 92aa2 11473a 3ca2e8 68660 35b78a 866607d 27b3d9 84b6427 81743a0 87f5b49 8482749 5aad91 817eeab 20b3cc 31ddd c530a 4aedcc 865643e 819152b 1ad7be 83a3c3c 840146c 81a0dc6 84189a6 74733b 46ad72 226550 8a5344d 8156cbe 80c063e 8722356 83d3066 151099 86cff78 80f5f6 2306eb 83d8c1c 88a3172 827d4d3 2e05dc 838cc5c 75f22 3bfe34 845f10c 80955dc 892ae82 83ebb62 81adaa2 2851a3 60c53d 3f0d3 33d8d2 839e743 88433a 83d180a 4cebe5 81675aa 865f1de 159d 204a38 85f0763 115f0a 87d74e 8591089 82b00e9 1ce3d8 4dfe4e 80557e5 52d59e 7ee46a 8073988 87afc52 696cce 39d410 6f9522 2606a7 80326c6 45fcc1 82c4dfe 83b59af 81a55e8 801bd8b 6d813c 2c798f 8402772 874c81f 8672910 848f2b9 77f11 783241 8afa76 8a3d4b6 879bc98 5c95a9 2ecada 8643f66 9b1a4b 8917d10 694f21 52a059 89a2dd1 80ed7e0 8026001 76dd90 5d0322 80c6a60 8394ad0 4b6838 8efc43 81e4d12 866a5a1 80611 8046717 2bda7d 4dad7e 6fe2d5 7ed20a 833d29 ecef5 8048280 86d01be 32dac7 7aec36 2b9cf4 ed813 59130f 55b6b 2c90e1 d28f1 8197c96 288143 80933aa 26f534 893c686 5417ff c9e7f 8409f00 31ad4b 818ba15 83f5225 524ea0 82bef8c 2e02dc 84f6d35 83dad37 7afa62 1e3b1f 8594ca5 6751dc 59a378 ade89b 8b0cc0d 265f4 43ca4e 8e17ed9 86be52b 5f5a9f 4c81c 831bbec 89fe33a 8322f7a 256007 4a3fef 800f2e8 883d523 818444d 88a04a9 8071567 105fe8 836f24 b58c5 4906e7 8014e28 8cd4f17 335c79 751b0c 80716c1 40bff7 508e20 80d6e05 b337b3 2e04fc 80d1edc 596185 a14e7e 57f05f 83cc1b1 82f4d30 663955 8522f40 2c137e 2e6f2f 105084 879d969 24864f 44c152 172218 34fc5e 85814c3 857f33a aa0c37 38e66c 836a069 8056275 58c302 8c7d8c8 873ce37 8880261 8140b80 8954b8d a30ca4 497385 2b4e75 2d0d10 83b9c6d 535522 81f2588 3a8585 a495dc 86c475d 87c2e99 9819a6 703501 8b7dc2d 35c66d 8ae5ce3 a2adb2 a179d3 8d32bf5 347d55 8ba588c 8766538 3c9996 8506579 86517f8 2f8367 6065d8 dc5cc 1a6d81 93921c 805198 b8cc45 ac6fd6 85f1a58 360b3c 8076e56 2254e7 82b9417 8c02263 809e344 8107652 25fd5f 8272042 52ecec 869e791 8371bbf 5d7f62 5f1f6c 8438d1a c631c 887d0db 801822f 856d6e9 2fdd9c 8ccdbd2 828cf14 84b9314 28ae80 4c0964 639a3e 8636c96 846c74b 481da6 c4d653 d4b2f6 8170dc0 60219b 9542c5 88cf5 87bf9bd 82cdfd5 4760d2 8de8ef3 85f7f97 82fc5d7 815ec47 87e8572 86ccda2 126664 807ef99 4cbda7 81aa604 8ad44b8 8472b26 81bafdb 978f91 85a26df 9b040e 4144fd 8302a6 59d743 8a9808c a5f22c 127a5a 5f6aba 2c8cfd 8380cfd b17666 70affe 80cc476 36ccac 95d879 ab4f79 57cee5 8e558f2 824047f df4ba 8ab9d43 b8995a 80cec68 801d1e8 8af9bd5 8518b07 893c714 164595 ac1aa2 23b778 3b7479 853fb1 bd0dfe 84974b0 a39f9d a8390c 83a0355 27107d 88ad216 352147 800a446 12b112 8234692 816ed53 724b12 820374f 323be2 833e3aa 872fe62 7534cf 8a5ae2c 48fa7b baf305 80b6a25 81c423c 9ba706 84d5ef9 4669b9 8fbfb5 80e833c 3dafb6 81d8e02 83624e6 319bbc 8139cac 4c8e7 81f2b56 928715 ee0b8 714577 613ea2 6414f6 816163a 5a6e5c 23c4db 735c1 dcec3 8244ddc 1cc642 845ec79 ef3d8 52c68d 907135 8364 8043275 8c73831 83c2911 15f72d b4b332 89ca0d4 81b525c 8a251a6 8520391 1fbe3b 6a76c7 82df6d5 85f2a72 84f2897 343092 84e92d9 3ce7f6 8522fbc 5d322a 8a38e5 818747f 44143d 4561fc 84f0f4d 8200181 27a63d 8041d9a acc21a 31cc90 8b73e96 844efe4 54a8a5 81ab36 4b843c 858dcda 830f7a5 818d9b0 857d624 825284e 807ba15 8011d2c 80c0107 60a287 8564b11 9abeb7 17651f 43e1be 41354b 8285abf 8cc442 6fcc4c ab7660 82533b3 80f4b06 614986 7c20ae 54381b 37f972 8009cef 6ca966 8447a72 8571cb7 628a5d 80eee51 88866ab c13f62 81680eb 3d157b 836d686 65ff16 82a3d9d 6d335c 8128988 84fe803 68b1f4 8067e57 1147f0 47eef9 242129 d6ad1 8a355fc 8819a04 80d5972 828a5fc 8998969 88a2b0 889c0c 63d9b0 c7820 817d9a0 372a5a 35b571 6e98a 813cc67 87dbb4c 1e3a0e af2857 21a1ff 4d2ed8 8059b7a 8093ba2 18da56 6451c9 80b454d a2309e 861d117 618a1d 8263fbc 80e17d4 2c0d37 818de1d 566c44 4867f 739b93 3b44f1 8373af 813e743 1ce5cf 854297b ceef49 198ca7 8536b7c 43b7b3 8bab367 815377c 86f8700 837e265 31367a 820cee9 8839206 824109b 1d8766 7442d4 87f3642 1fec35 31f09a 800b851 80fdd3e 32f93b 1bdae8 4d2e7 865ade1 f4613 80eaf14 dc3e1a 4369e4 49a9 8029c30 2dfbc6 8007ff3 713335 84566be 3896ac 772318 832f9e6 958623 86084b6 81a0fd1 832971e 121bbc 846f160 86769e0 8de1bc3 88c08ba 886bf2b 82007d2 847fdd6 880f4ff 8bab057 5893e5 86b695 86bdc5e 491c36 864dacc 8396204 94f955 88bdcad 818e707 2f0452 800a11 63cbef 571c7f 86632cb 81df2a0 3d60f1 10a385 1d4f70 58a25a 80c8b13 82ad198 82db0c0 8115ace 87fa792 438e30 287e64 3b2270 8716748 89f374 8140989 5a193e 39de86 821847e 85c0fb 3a35d9 2f0884 1d04ff 8056088 233c46 8150c5b 93032 8961527 8719cf2 32ad1a 2abff6 14b39b 60900b 989252 80e87db 80090b7 15b2b8 fb6b9 82566b6 8617fb2 8325748 80a2a96 823d415 85d172a 91790e 8b1a63c 4d5afb 10893c 85a1ba7 262e84 8933ed2 8c382e 83ab290 18fd56 83ad58c 8497f67 916b97 82342f5 85bd58 809520b b6215b 10a4e8 810d5b3 83daade 61c957 81249b 4362d1 5e5ca 87096a3 408e77 239635 811701e 89ec768 80924ef 82a24e3 5bbf7 21b57e 349a2d 33cc76 44010 87c3f9a 1bbdc7 8f95da 98b5af 883903e 8b12869 1d46d9 16208d 87aa411 dfb27a 874cea3 31708f 848c84e 83e6339 3d1d6 1038d2 84d8d26 899c21 88a6ad8 8a9cc73 785945 888853b 86b83e8 8d01132 8b4db7e 88c9751 805b7b8 94004 85288c1 8420a0a 41b00e 470872 8620313 86c406c 8938e53 7b137f 8bb6269 e3f28f 82e700c 919f6ea 39c62f 816d877 5b69bd d18392 435ff0 973b14 4fbda7 942e890 2ebf6c c0390e 855935d 87f1e55 841fe9 87fd603 91a206e 818cf82 847ffd6 8ce6147 675901 8ac083c 875a9be 8227801 d540f3 87522a3 8941923 355204 3700f9 7b42e6 2b7a2e 989659 3492c 6827f1 22ca1 8080752 8caada4 8a1f977 342f7e 8092888 4324a 41bf59 f58e0 12cd960 84c7713 18a5b6 88f7961 809f839 8770744 851ba7e 86109a5 c01351 e823bf 3c6280 8305034 8212df8 aeda49 85fc03c 8c81352 1a51a8 82a21c7 a89f93 108c096 8737c4c 2a19ae 82e4c1d 87dd534 b388a7 86a3b47 4a23a4 f0e9b3 791005 8013b3a 85e59ed 11250f0 76cd1c 893813c 84e780e 8846325 808cb44 83d35bc 863af1f 4a5c57 4412bd 882e0ca 844ef6f 87f81bd a20c7e 23b2d5 878140d 74f3ca 8ae92c8 4bd882 ab971d 89faf6c 8531667 3635de 875659b a85b38 350d22 89991bd 814bf3d 4f6a05 119376 173543 85e500e 8675c05 980563 80f9b0c 88a6b4d c64090 80f5e1e 88ea991 1e201e 8a9537e 8eda20 80ecb8a bc457 260659 812d830 881596 83477ae 859c773 807b775 25a233 8718fa 8b43ba0 f4fdd6 8417a05 87e07ce 5761f2 8080e7e 111ae26 2f6c77 323b68 83e2d64 827e610 85ab709 812a9e 9d3404 2625b5 810754e da8f3b 3d581e 8575c65 9acc32 819a2a6 8b7a394 10fe734 89e1836 8434e9a 742218 f15fda 82885ef 8271bc8 85b438 110eba 3488f 404134 12684a8 2bc175 3cedf4 81557ce 88a41ea 86139c8 475268 2210a7 894cf24 433da8 ad9b7e 840bedc 8198837 82eb8db 8b14146 8c09387 8980d07 2f3c17 8c65f92 84b5082 20ad6f e11dc5 f4379 72e256 87a5291 8632b39 3fd706 814e641 86493e0 80326d4 16c2c1 4a65be 8080b4d 80d2b1e 875b17d 86ae70d 574e29 ac712 8185da1 e3fe4b 61f792 14241c 3dfb50 173e1 9fe56c 30741 8af2381 ccbfd 8517dcf 809872c 8a635b 3aa303 e58849 83d75ba 802c6e9 80292ca c8ea33 8294f54 8505cca 8956c27 8464ff9 58bd8f 3b5468 6b62f 8cc607c 4d09ec 8c4190c 32c1e3 831163b b8f23 3c6948 65e50c c0d70d 14d109 841b330 84e5c39 b6b592 87bf147 8ef0590 ce8ddf 494ab0 9129984 8ab37f1 824482a 2e4f79 8cc169a 8c6392c 28acd8 897b053 5849c5 c3c4b4 904d35e 81d3949 894499d 15eb71a 83cfb09 ad5091 847b235 8051e73 8be9a4 85321e6 ddc677 1cc2c8 b6a171 84245c9 849bb8d 859ddcb e8533d 80b0558 4161fd 893dd 12117d4 6852f4 805d65e 2a063a 4c191c 805ce54 fb9415 808674e 83847ec 841d3b0 bb7227 83ff8fa 871e40a b3360c 4460a 79a336 8163405 c5fe93 91e061 6b2826 545a94 80970de 8e1b48e 1927d 8cfd806 82a7bf2 9e1e54 7a2e6a 825b96 815b112 87304fb 816875f 854d023 86c204b 8524d78 8e24772 8b23422 41314b f85a31 7bd277 fec3bf 8830571 371a2b 59cb8f 8397b86 1c8fbd 82af446 861b57b 83c513 17c923 831397f 8366618 3f3577 85b0094 80d154a a8539d 175133c d4471a a8d2f8 8318cd6 1117544 a33554 29d5e7 8ca9c59 5fdf85 853fb58 89388b3 8467840 6062a7 9629a8 8c4b4cc 2498e cc19 106b9f6 8dafdf1 890c4f5 32da32 894f6a0 459215 2b16b8 8682154 9131394 8522601 8d6276f a36798 810643e 87b2fe6 824166c 5c1029 f886ca 7531f6 32f79b a553eb 89b018 81870a7 88403ef 52ffad 53c05a 96f3ed6 8635518 827b65c 236437 8114620 8c27d6b 8389e6e 8678d07 a4e7af 815ece8 89b480a 827bb8d 870a293 18d4042 8659399 955246 8c9a861 1dff440 eb2d50 85d9cd2 1fce6e 26896c bddc8b 4b5a0f 812f57b 150e6b2 43291f 8ab987 9a5792 346bdc dc2bd6 2b69e3 83eb306 2cc077 cc7053 84bca9e 1102fac 8b6596c 6854ed 9ff94 d901c2 8babbec 5528d2 13471f0 84667ea 8931278 39154b 94ac6f 94e98f 911c30 9dd135 8042a41 8dabc6f 8672246 84078f4 87aa6f9 d0dae3 570e89 3701cc 8ed282 853cc5f b37d75 80b5e0d 87b431b 869012c 8a8c497 9062d64 fd164c 182135a 80f9bbe 10a5580 825ab15 215b6a 83e496 25db06 81ea2b4 8a316c9 2f28c5 9e5982 5c2788 8d04611 56b1fe a19e99 3e5c36 835ea17 8338619 ccba60 dd8778 9c6939 20db33 a39604 f98ec4 86b0d40 87369e9 339603 444058 86aa78c 19f6df 863aeba af7b02 8545e3c 498e4b 85111d8 818630a 85754c8 8e5d0d0 1f9ebb 90f7c26 1068c8 39c0c3 87738dd 887fbe5 212fe2 86fcf41 6971cf 819a227 80c16cc 80afc56 605cbc 992994 8050304 827c52b 79e436 823595d 87b701a af74b1 7b597c 9e3d7e 84ae649 84acd17 e0f2f8 3e68a9 70dbe 810de9e 8638d40 24d2fc 8829796 1570ca 5d066d 89b1a5 20b89f 2477ca8 4a5061 134414 9241068 194c102 eb9a93 88ab68d 9caff 91dc3fa 582a72 3bcdb5 effe2 2827cb8 81b361d 8bb2084 4dbd9e 8e930c4 13f6456 84f2fb3 87ac066 8443e29 2f8710 b23867 8d6f093 85f4d13 4c8a9a 567886 1b24fa0 8b9a0a3 81f3e87 8ed81f1 12f85b4 8cf7479 90d3f1 17361f 902927 cbc6ab 87d2416 8c2a664 1150106 b30e7d 86d5e7d c00317 811c36b 845959a 14de478 2bac0e ca1dee 635934 890f313 1d0395 65033 9908a8 8acb0ca 8bce4c3 91bcff 80b4438 1668d3 bd331d 10375da 3f049 3c5090 80eaf 3613c1 829ea2c dd37d7 f5d807 842cd46 8c482dd 236f7bc 1338f1 83ed2da 862f995 821148b 64bcf9 b7a52a 17d26b 8702f56 22140e 5504d7 86fb2c6 f7b3ad 85bf973 8ac4c7c 88d86c5 f11989 c448d c481f1 8955d9 6d9c87 84d13f9 45b8c2 4a437d 4eba2e c5c744 81cca06 82915b4 47d67c 410032 80483b1 7438b8 f59ae1 91607ea 57f59 82b4089 776a6e 34a8d 894475d 9872004 8af543c 81f08f3 86472d4 84cb7aa 798f7c 14ade1 8a8c2b4 11a8ba 51e2f5 35b262 886e956 9640c1c 53122a 82015f5 a5c130 16a7f 8ae38c9 804577e 818fbeb 2484ccc ad840f 1ab78b8 8317471 14b55f2 14f2762 8c948ed 1796d1a 85c9539 8b693b 85a56ea 8164c3f 1606646 80cdd62 869d151 9312c02 86a7a1d 18b9b74 4e18e2 890f33d 8468559 1e3624 889c822 81d9e7 870b523 85c9c49 96d4b 10e7c7a 89616cf 825ae57 cb39fd 390566 83f8034 addbe8 1a0eab8 db722a 8ec109 1341bea 92f7442 8022955 85e67be 8330346 a97c1b 8a17e4c c67a62 94aef9 8467b6e 633ae1 9867116 8e1867f 1f45fb 54539b 8c3ea7f 83067ab 2840d 85e0cc 8b47da4 455d41 878455b 3ca490 c00468 83b5c52 8b139af 854158d 8c64031 d044d8 5bf4ca 88ae3 884f810 19f1588 8a42cc5 89b64ba e32602 a6d46e 683fca 75072b 6577b7 11953e0 a7026c 83e28aa 8742e0d 80f1964 8280109 825edcd 3be56c 5b5220 11645d2 8b82abc 83e2be2 10c1cdc 82ce07f 2bf5d5 85c0d7 8a51a88 81ceb5d 85e9674 1011ae 83797ce 91d4456 85d529a 918fea0 9ada24 8ab431e 54279d 80ee395 eac272 13260fc 86bf410 8bee20f 90db21a 95ce93 8ce899 8848b6d 708649 2d88c 8b44f79 85ee10c 8601d9a 27d1ca 869f7e1 8a696ae 304013 8c098bf 14c06c4 742141 850bd48 8251349 73c3ae 1f3f1ae 977014a 609d2d 2b5606 e8793b a22ac5 8682eeb cb48b4 b47cda 6ddc7c 897c5c2 60b80e 2b35c8 2ccf40 186ffa6 8ba7a82 48a1ed 5476b 670e8a bfc779 b82ecd 3b985f 18c9aa aa4d40 8bc21b3 5858f5 8e296d7 829f5af 89dbc77 85be0b6 caa27b 8d7e13b 1768be6 4ae666 151e33e 4c0e19 1a65d7 147d728 211cd4 932c462 8e2a754 8a8b19c 8ffb31e 7f4dfe 7f4291 78522c 83e13d7 848b462 954556c 8902173 9c13f6 4b4364 8072953 8073ffa 12ec4ca 4311fd 2514 1715188 e84c 8300191 bd0033 92a9e54 87c219e 838acd9 88e79f3 834069a 82070f7 80c1e6b 85a4fbf e1300c 8590eec 9618a72 538cc5 b6850b 81a9f0f 860ec4a 1232b5 28ded9 79c590 7c9e4 863f535 6495b9 24aeef 63a5dd 828b383 8dc2df4 974d60 8ed35da 60159b 90364e2 113f3e6 81ae4a9 8294bc2 1055cf 92184cc 88c0bda 80a6987 8916e1b 854a16d 855ccb9 8016dd7 8bf843a a41bad 79e98b 8053b13 865511f 1187ca6 819d583 bff47b 9a939c8 a3ba51 4c7a03 8764f47 82e1ee2 85fe1c0 8bc79a2 8703a67 83b3030 25820e 89901ae 8c1d8d5 81f8352 8be885c f79a8b 8aa2e8 91fd87a 8abbc63 7539d6 4430a8 9561a14 3aa879 a5090e f0cdc0 bb7481 8ace7e7 14eccec 7e0893 2dff17 85ca572 7f9947 2e183 62ff90 6d7278 8e68285 82ee0c7 13cf5ee 82e6067 8ac163e f6f667 1edf1a 16f520 3faee6 830eaf1 8a1a7c0 8960780 8890efb 8ae0fdd 82d3629 1827d06 8ccd626 c6d202 8025d16 8713ec 5ad459 45f055 1627dbc 749446 8d5ff11 80028c7 8f85c76 83db568 1ce978 650d29 8745e52 8977674 85b078d 9e42940 84f2943 27923 1ae6de 82edef9 833ec79 15b08f8 75b872 857e82d f9661a 82363d4 88c88a3 1fffee 954605c 28aa75 921a930 8feb9c8 95d025 814b50c 81d48e4 851ae31 15a860c 3447b9 8d5f82a 86e8ea e36192 f348bb 871a455 2acaac 866379a 72e148 8a91f0c 871c30d 82bba24 20b402 613c26 86f9766 8c41039 16e146 893843d 1391b5 999f93e ff12d7 4253cc 916d284 8698659 89c8780 8b0fdae a5889d 89e3fa9 89a88e2 7cafa7 85f5b63 82562d4 a2f947 df628f 2fbb40 81e2eec 1091f1a f8e55e ef2014 853febb 960236 87ce359 8760608 8239bcc 8fc4dd1 176a0e 828966a 8ad8464 868a460 491c7b 8442347 85a669a 870b0a9 ecf047 c7fc7f 848f92f 897872a 82336aa abb09f 95310e2 b2689a 86cd7eb 6fe54d acf992 83080e4 67f066 7ba7b3 846cd0e 739c1c 845efb4 811a70c ca5e71 5a2f93 853383a 1491d9 1397d46 839f44e 8acdd91 79f47b ce479c c5cea 13c722a 8579158 87c99bf b2e97 5b69cc 852c923 89ddfd1 7bfa92 715a1e 5388ae 5e83c0 8efbea a44952 6d19ef 551c79 a1b24 9013472 8f3b56f 818015d 822a308 2a642e 306dbd 11e3cce 8250a75 31a15d 81953f3 90ea4b 449d2e 8a1416f 254482 89ebc58 c5de7f 770b3c 659da8 5bd47 8fc08d1 6fcb4e 84ad0bd 89e26c9 5690c1 886c742 9d181b 30c706 8ab8e49 8529c6a 89b9482 8978ce 666bab 61ad68 872faa3 123cfb6 ac18d7 41b1f0 867b186 d11a5b 1be806 8c12144 c22ec 8c108fa 8297b1d 87d2b3c 16f4e2 3729 793a2a 8b7be9e 82438b3 86ecc97 644311 87edf7d 8c8eb88 7cd984 8970059 808a052 f2e82b 844d701 83c4680 170a74 804d45e d48545 136f68 8234fe5 11b6f3 ff99fb 109350 67f59f 182a49 813bbc0 efa741 885bc02 8d58255 843976c 8e4c8af 8dca5e1 802f935 89afe4d 8129977 92882 92436ac 171650 86ccee6 5e6a69 b45ff5 8f6ed55 a7e3c 847b410 81043a7 9639256 c4c66f 85b467e 56ac98 34097e ee7b2 e3cd56 c28c1f 82806c0 db4264 8383ffc 852c142 fd8ed a3d50b 8bcd6e2 85ba45e e6e707 82692b6 8c6d490 351956 994936 86598ac 8ac978 8925d63 899acb0 80c8ceb 64d00c 86f8198 8804801 154b1ec 292cbe da48c5 a10f00 d8a686 806e9f7 10312a4 c1d313 842c32c 86239fc 8bf575d 89858c0 73d19 5da7ff 1a0b03 9a857e 7553b0 3ce461 83eb0e5 68127 8174029 e9c1f 81b6664 8d0641d 1415b32 5f29ff 5e64a8 8019442 8101c6e 5c680c 801fa39 8ff42ef b4d4ee 8d87b5d 6d91d4 98af30 879a0e4 84dd077 18939 346876 95ee60 847c7fb 72b471 e2c9c5 954b35 83496c 3fd7ed 376d49 78250f ce288 821fbb6 8f486a2 824b76b 896aea6 66a72c 1b0f58 b89571 82f6986 892103 819234f bacc48 5c265a 8ca9f0b 8492b79 978eb7a 179746 6eb90c 8fca12c 8974250 35428f 87708ee 4c8ad4 39d80e 52e004 845601f 62ffd8 3cd2b5 7480ca 8b8d532 5577da 1d7853 36331c 8688092 371dcc 868dbd7 93e8f72 8380288 8afc8dc 52aea3 8727406 858b7d3 2a1ebd 8555b05 f8cdf6 97aadc 8fc8789 8e01791 57c32b 437e8b 8cb5cae 2fa687 8a6385a ac871b c348ba 888ebad 4c8f2b 8338263 833388a 371622 862674d 2533bf 2d571b 3be0c6 8459d03 86a8fba 106187a 85e22 98c715e c07286 855598 893d6fb 519179 133434 8372e1b 8212b90 ceed0a 84b0d83 8bf3db3 1762b62 83d0278 ff6441 729b2f 1d3a55 826ffc8 9c280f 9c5fe3 1fdad4 8e2351a 83e9712 8075183 ef308 ab5e1 827ad39 6a7904 81890f6 810ca5f 9733d8 d7b71 8670845 99ca8 896637f 84c15e7 6e82b7 824bb17 a4fa79 b8cc76 8dd75cd 6db00e 596503 92efbf6 19c60a 85b9ddc f32dbc c76dc1 8d9814b 84d148d 8746d9d 28a81f 90cabe 4d9f34 8200a9f 1220226 e86803 1cfe44 82db44f df3714 175c61 85aa8e1 846d7af 84f4327 17d9f3 8bbe12c 81ee698 10d5fc8 a680a3 877a164 360132 8043c8f 72300a 192a19 23a0c6 8626b03 8fc5c48 3a0ec3 12abee2 8153442 921b2de 87a5c21 835b781 7b1bce b3a02b 471959 82354cb baac5b 84d059 a7f3b9 28a495 83d1abf ae2744 82e6dbe 8d6abcc 82cb252 22bc7 86029dd 806030a 825261b 82c5680 2984a5 14bfdb 28b753 e9d78 479155 e294df 81ca0a7 880c948 86dad30 82b2f31 88cec50 60f757 85c9fcb 8b7b22f 9d90 861f519 7d4bbb 6b4539 844248e c4b9c 823b340 866f725 a44383 a4b3a3 8742db7 802377 2e664e 84549b0 8767902 8ef6ee 86f8bc1 53ef9 82826f6 8191793 8b582dc 808f7a1 8572c3c 83be17a 8dff388 c7b403 8060a1f 8068d0d 859f2e0 be4e44 c5869 35d23d 848a31d 18cb71 84b620c 812fbae 8721b0b 35e872 6f78df 453589 9d60cf 7686c9 83c0cd1 81ad784 868889c 2f3b45 315535 87fa20b 8e02ba8 25a6b1 808adf8 80c9681 879155 83c3dad b46dbb 5506a7 80589fd 8339d90 866c7af f7f68 2b33a2 8df561a 855e00c 87d08cd 46d148 814617a 811146c 845749a 7646ac 980fe3 66474e 2ff1d2 bda5aa 7254e1 879efcf 2cee3a 2a06b2 7cdd6 81898d9 310965 24e33a 3a1518 8d723aa 31a354 162eef 81df9d2 344dac 19d5f0 8440865 891e337 14fdd2 c49297 85970e0 899f7a0 2bc2d4 87c4226 8b0d50 15fdfd 8cc00 4f784d 977175 80911ab 6383dc 197e6c 809c27c c82921 83c52be 84cea0f 62eaba 851eb1e 86fb12d 834758c 80dd6b7 2ce8b4 826a331 8886a5e 8020df3 8e64149 8076985 93a6e9 809497a 27b7c3 8459455 9e8fd1 821e46c a25cbc 826827e 827c879 9458aa c255 25de29 3984ae 809b591 41844 8086a73 89952f2 5ecb22 7570f9 241dbe 80ed81e 836ff2 883b15f 8b9342b cecf10 2db8db 75aeb a3ea17 49d232 88724f2 385914 85ddc57 84003bd 87fa9e4 998ba9 2b29d9 35e42c 4818ad 9c8d0a 82434bf 85c8bc 96c56f 8174f32 8bb1607 8830025 a8348 1ab0a0 b27d15 20ca8f 812839 5757fd 452f17 80ed339 1d35e 54f29d a9c023 82ebd42 8f12081 3ce6ea 3aa69b 496835 49b010 84d586d bbf3c6 871bcd 8b85e8a 9c6fa9 85ba3f3 266da0 6d531b 87c7a3f 8730639 4866b5 4a8ae2 5fd3ba 815995d 5f6414 32ece6 6d996c 1ec705 617fab b64d65 8231ab0 4f375c 658bb3 87daf4a 369d3e 84e5c15 84bd44 b4004e 17f3fa 83a4bac 80af52e 4c7ee8 8a4aa5 4d0a29 81d0601 8107850 8ad7a3f 85f7b44 a8b16a 8c3310b 8b87478 87db364 85fe698 2aa814 87b572 827ebba cda46 536d98 95595d c5321b 10b42b 67b388 30d6db 35fe46 8c73a12 4e7354 8806d6c 872872e 890197d 8915a49 82050e9 83f5108 86c710a 23c7dc 860417b 832c3b dba2c4 8b92565 2a431b 81d1299 158d2 70bbab 76491d 17f70d 3e77e8 16b470 872daf5 8e866e 254e02 a1d8ba 794874 84d1670 80761d4 722e81 8211054 82a8c46 b911d 8001ad3 85d117b 861f044 801fbe4 4e33b5 842ce83 9c540b 817602c 873dee2 80b938f 2c20f5 8c78e24 8376ef4 25b0f5 142ab 38e18d 52b2ad 85e247 84560e4 80a0b94 962ec8 80f893a 8100f60 86cc503 845196e 85e5990 82b874e 84f5ec2 589d47 ae4cdc 835659a 84205c3 84f3ff1 871c140 80f83be 878780a 842f687 8325031 a261f9 83dd8b2 bb50be 1e20 b16dd8 3739a1 89ce2f4 5a6b40 96793 839d820 76549a 8847f25 81646ae 354234 e416dd 807e437 837806e 9894af b4af39 a21f5e ca330c 82a3a62 4f1ba2 9dd378 48f7b7 997a0e 6987f1 8256cb8 3a1725 5477f8 395682 25d4c0 85f7442 8285327 4947c9 9853ba 8676461 848aa0c 44033 814af3d 87b66e3 359a0a 1d8ed3 8a3ebdf 535353 8705c35 2688d1 231d2b 8162706 8166198 71efa2 8a36c1 829d31c 848239 1e98e5 765594 805e417 253095 693fa1 45ab9c 866fe5a 85eff5b 872116c 85e713e 2835c7 872d634 810a735 79f551 810a28e 8361b90 86c6a9b 863a2ae 172835 840e2f5 5352c5 2f5f95 879e047 83c9163 8622d81 85e9808 ff865 22a53d 399a62 80f0413 873bd57 70ee83 85b6118 418d26 17754a 8106fee 85c9f7d 48df2e 65fac7 139a1b 6ca0bf 394902 457cdb 1f4b9f 8722b3f 2c0f58 8481fd3 85f0333 8569f5f 861e103 871f2b1 865c1ae 787543 197041 8722482 8774412 3dc743 258452 822bf6d 58000e 866321d 870ef2e 2de509 65343e 57022a 52207e 4712c8 8301a65 820a74a 2d7fab 815f777 157634 8646dee 3b1a36 68cc05 83b776b 84d9345 84f5889 828da5b 8757a90 8d94e 3be23e 39deeb 2d7823 862a5ab 3ffe0e 547b6b 86c0957 84779ea 82e92a6 8360474 727165 2a139f 87912a4 6fdd1a 8110e98 83e83d7 81a32a6 1dc411 811b397 28a7fc 849a423 770ee5 86f6b75 3a1509 84a744e 76fee 82d0b39 82d07fb 813b0a2 802cc66 879941e 85cdbd5 85c05dd 48695b 86f38d2 844515e 761d0c 11728f 88296 4027c5 855a975 8314747 2c78d7 82845e3 68589f 87af423 2df8e3 207473 481d8f 398f4d 443684 721d0 5fbf38 705b0a 7290a7 63f112 80eab98 8490e57 359527 82dd32f 3fb3a9 11bbe 8409dc9 34 67908b 585e33 6f752f 8237c19 3ab9a9 67a898 853b888 8354fc5 83534a8 670c16 85c1d44 4492cf 73754b 3978c2 626a02 b7fc3 84fd401 8315858 83b8169 106793 62c6be 639299 4f8a0 167f4 74c07f 24061 837d22a 836164a 824bd66 428bd7 831b091 12ea27 86e49ad 380b6d 8309163 29c017 85d240a 804668b 867efe4 83fe27f 835d675 84c9dbc 822f739 609866 f44af 82984a1 47e246 74c682 85faedf 82b3551 8750247 2bd917 81eba2f 76d1ef 64d0d6 827537b 87738b2 85b619a 4647aa 818ef11 874719a 8699811 69226 8600381 53c2be 7571e5 8393f06 5cc7bd 273dc3 4cc448 49fed3 82eeadc 62b51a 84fc3b4 4c3b40 711a58 80db519 861d58f e5a73 873f75f 80c7276 20f656 8769053 864c33b 32b719 816b284 1086b8 18c844 83ed31b 82dc0d4 8367321 818912f 80d6724 16af18 846651c 258714 3188fe 867a202 85c39e3 862e041 864da9a 3d18aa 859a444 168fde 718961 39df23 371f71 64c700 8273ae8 414de4 8051536 81ab322 528772 8547cf1 86ebc97 843f896 869c46c 829a654 f324c 862e4ab 50c893 47b26c 236a4c 1bc0ca 86eac07 831d849 6679f5 555c1e 5de3c4 8382a5c 3250ba 2b41 23bd7 8430461 582adf 410794 99c81 8143e17 2861ae 735758 712594 6f5e2b 769412 56d7c1 32ba8b 92d53 838b9dc 83890d2 3aab7a 312c8a 4b621e 177a7 33ed6b 5d5205 741897 850910f 8766030 828aa65 70f231 5caa1d 8655ec4 856d1d1 7d283 36681f 8035255 85416d8 4ee39 2bc079 841d29a 86b4728 835e33d 82e26cd 86b6ab6 856cdad 76cf6b 8747455 5a4283 457ac1 83fd3f1 3bf083 825f6c0 7500f9 866fd32 8450287 8266ea3 7a8faa 85bf9a4 81cd6ca 11c07a 8297b91 82af0c8 864ab0c 869066e 4d89b4 86cdea7 4e8d3f 82d86de 6612e0 5d743e 831b2b2 85010ad 34f1ed 8359dc6 8125256 5ce48e 3fa979 800a362 93f89 735de5 3b0732 d5a83 85305fc 80344b8 804c0e2 14df07 8524f0b 8009f05 83d82d2 86fad12 27db76 70dcc0 85d2217 8595453 8022e34 64369f 438b28 253907 668228 5d611f 647d55 5bee19 83f85b8 448400 42d614 5ca6a 24021d 4a6f48 82aaf7d 809fa3a 38887b 5eb624 1107e3 50b76d 8054f2e 818eaef 81b2d47 810cc00 37d683 815f42f 8756711 33d8b 396970 2ed4fb 8717165 7ad885 83fbdf7 1ee292 62d566 7b2bd0 8650ff4 807c8f4 80758cb 808b3b8 b0d9b 557be5 741087 871489b 827f8da 8216cf8 836ff72 82af800 81c152c 8085f22 49ee14 5d4a56 653232 8159d92 8113293 2fbb91 4e8711 84ee981 7b4e37 33ac87 845b83d 8778a75 595024 415b7f 2b410c 82f7c9b 8796e78 61af67 38fdde 340006 83a4738 83189d6 4cac7e 84e6d4b 83d33da 1741ea 8317636 8545e88 8760e61 ca22e 78a391 86b4f17 8231a02 113857 3f99fc 8498df9 82955a9 557f20 86540ea 83dac36 8755f7f 7b1970 5ad801 750582 81700bf 690a7b 4c236d 822adfc 2adea1 816d1e7 37972b 784b62 2a8a2a 36bcd7 3ba640 8056c68 4b536d 1feb6e 85e8ca1 5687b4 3d73b1 83d6df5 535382 30e511 81ae647 8002d92 84463f5 85d8b67 3a1a0f 12dbb1 5a391c 821390b 1f1ce5 141a74 3a1c64 8147f30 8767b1c 85a17c9 7826db 5c51e1 814870a 859ff 367d72 804b8e2 64bdb9 870051a 717d8a 876c82d 871897e 5c7bbe 193fa9 83157e5 825b665 76ce6e 8514b36 8314363 20827e 273692 84e429b 47f8aa 82914e6 415122 72cea1 4d809 722c66 105218 854e8de 362877 383f8d 82f0f3b 86fb1f1 80a91fe 842e02a 85aad72 9fb9c 8525fea 81e18de 39be04 bb783 206c62 8008c79 8012b75 508148 ca564 81ade79 1d81e3 87558ec 5e4b57 8717687 85261d2 77f28d 872295c 72692c 4e7858 888d9 82684ee 60234 85cf0f6 43a3c 5c570 8513bf6 85d8a1a 5eb1db 821fada 8668817 8564c60 263b96 863919c 853c5f2 8379799 838fbc7 84618d5 6310af 6e3efe 753a2f 6ec606 864f3f0 8765d65 85a7e87 81d1c64 3543a3 80c30f6 53530d 6e4ed2 2e253e 77efc3 8718fec 85c92c7 241957 81a7444 8700150 803f5fd 824dd41 5fbe4e 4cc622 495ad 81569cd 8389159 8221087 234bc4 834e496 8596f32 13c44d 47d133 87662a4 3b7204 865dc56 875913b 1a7073 323b63 8775429 8379379 59f682 1ce3aa 713ae9 8675554 66c4ea 6d7912 81cbb90 81d5d6a 21f696 52ca58 4e2d05 83e531e 3d26ae 6a43b1 8563647 4fbbc2 8790ec0 84d02aa 85aa3a2 16a589 28ff23 5044fa 1e0fba 491534 82b5e92 2c2eeb 83a3009 40ccae 85c10d7 6c1fbe 8348c72 87b7edf 8d879 811e80a 83b5fb3 8639868 3b1bd3 86a3253 14e070 8528d28 831dae4 71e077 16a2ba 84c86e6 4737be 3d9c66 86b5150 25a583 43217e 81d40da 8485037 4dd26c 40f5fc 1cff19 9c13 8164495 4acfa0 27dd4e 8420bf9 8463fc2 357a9a 87b6955 81c2569 814d7ac 592b77 8726f38 812e452 864d88e 8052928 46b93a 83614ac 802d04c 1331ed 3d9b29 521ed2 81f87e1 31027 838cc2e 8420fc2 ed2fa 82bd9f7 82d3c34 805a42d 78d405 8315f68 84bd3a8 80bd4af 139efb 5b421b 873a7dc 83dcef2 566e3f 26eca3 47e29c ec60a 573aeb 6b5008 80ac9e1 81b6947 877550d 169357 6707a8 5d2fb4 8341280 8628299 1c6f62 7bbbbb 87b1a78 2a8d1c 81bbfee 370962 731776 81e01fb 819fb85 2d463e 2728ec 6016c9 79792a 4a7110 206eea 7247fa 86ea0a1 80cee92 4bc082 b0d9d 3de5ac 3b0df9 3040de 176e7d 58d7f2 68543 822b0c8 81adcfe f7a2f 10cc98 80bcd24 1618da 5d6087 68754b 3b32e7 823c943 47cd85 61af0b 170a56 6c1247 10089 8595d73 93073 3a8760 11dc45 3ea652 4db9a8 80d08f5 6f1522 8303a15 1d6b2e 344757 71cc3e 86f71fa 68b6ae 82e4e08 26f7a5 816e208 46c02a 8387e50 80a1ecc 581aa3 695372 2a9ef7 8066bd8 497b83 85581c4 1b15a0 b6e4c 2ca09a 8056d78 1befdb 14ad93 8070981 87655c7 24cd6e 829d360 8201d1 32341c 8a1003 df2a 87502e6 863614a d4699 bb802 3669a9 429e89 5bc727 85da399 3da2dd 419671 574eb 221a4a 68669 1e0c 51c893 82dbd82 8491818 27f8cc 82e1548 82878e9 1f41d9 a1cfb 8716181 8734060 812ad83 80fcf5d 84405cb 2c7ce1 856ab60 23c8b0 866d512 80c9dbb 86c5878 268f01 8384240 168b46 820a3f5 213158 84fe036 6c8aea 2eeab7 304b8b 20c236 83ffcd8 1abebb 823a653 321326 159ac9 7d778 82cbd33 8528124 81a43ac 1ccc1f 820bf19 5851bc 68ea1f 2241e6 874996c 860bed9 29aafb 81d4857 4c9eb6 1d568b 70b899 480241 18db29 80acb2c 4c660c 8336089 778539 6acdfe 826bc6c 3398ee 876446e 83f37e6 8001a47 92f01 5ceb96 acf11 86f9598 6f8750 804393f 3850f1 80f8be9 534172 203795 80c2055 61b75b 532404 8931037 8089090 2613f 3f6520 570f57 828ec6b 242a4e 552737 57db49 649db4 858b034 84aaa47 3dba98 828600c 8e68202 6e4633 512532 853e7c7 3f29cb 3ac2c5 80c1e51 91fa024 88bc469 569afe 8620738 c83a4a 15d7c0a 92034f4 8911b5c 91d803 427650 94bec58 4468b2 547d00 1ec22d 3dc196 38ecf4 102e63e 8902c1a 50de26 88e814b 8143f79 8c9a1c 8fd456c d1c73e 67ec45 84b8955 188cda 35c1a5 1449b6a 118a63a 921fa6 287cc1 7ecaee 523d6d 56df67 8677cc6 81954d8 8cf45eb 59d041 b576c8 8c36134 62a26d 3fd218 956c01 801e4fa 32fed0 8104373 9014f70 956b15c d93e99 8f86ed8 2ba5a5 59b058 23b4ed 8402ab1 859d567 3dad03 425764 628559 31e1e0 85c5c78 89ac7fc 8e652a0 99cd17 89b58de 8d19211 747c71 853074c 87a0a58 104aeb0 8c71cc8 8ac6c20 63bc3c 862a0e2 60c199 133c95c 887bc1f 80650f2 8dd846 841ae93 8e8f3bd 436b1 bd0812 13148ec 26fd67 9c7f6e 85066dd 2979a0 66a1c3 8687d40 3f5b02 83b1697 8323040 617b04 26ea3a 809a289 84b2432 4cb20 8058b68 834389 4298f8 8566a8e 8ee92ca 8451181 87d66f4 cf2303 895824b 85ebca0 829cf4 89f57a9 366c0f 829900b 5f82a1 8013d26 8251c16 85b9ce0 cd2e87 20d8c7 8173547 c0fe43 83d24e1 914d5b6 5079ec d6d34c 8366524 8e16ffa 8d69db0 66636 8e6b18a 849d343 41bbf1 8660315 14caf5a e9d2c2 958ffc0 8fbc285 29268c 90ca0b 8faa2f3 97f3ef 85ef631 84bbde1 837312 80f6cb5 46655a 82b1a5d 2d610a 81944df 80f108d 5426cc afe91a 93496d 5f22ce 821a699 c0b253 163412 995881 3e1075 9367ce 813bc67 114515e 395334 81da5fc fbc2 c4d6b3 81e6ac1 839d985 15a6eb2 8df853c 114e822 8d40df a13074 8427225 d0628b 88c11d3 882cc0b 9115650 7ddc3c 8e502e2 143098 82f3f34 fa5f3 e04fca 83ac516 8699d7c 8281718 817dfa1 860be53 8533dbe 8d75eea 9377b16 fd7801 658791 8705ba8 9c4ddc 8227dfe 8460926 bf9b01 8513dec 84aa0c5 2463c8 9a7958 383f7d e058a9 170fc0 80653bd 108e2f 8232cd1 8046679 83bcf82 830d32 7c3656 3afe4c bdb678 a96c81 8e4f8f 857982b 874ad72 41ef81 878c09a 83169c8 1a4314 57db0f 1a1281 889b4b8 603d04 8750a70 1b2a36 8705501 523000 839ff29 868a1ec 5f7ca6 6aa1b9 9194ea2 8f6bf5c 746ccc 8f47fb1 9c1f41 4f565 8c9e351 83cc58c 1ac5b6 5e5057 10f46be 420a36 b7f96 807841a 1a9093 8a5d48b 118f81 80d2aaf 85bdc34 826c070 86a3c35 80c83fb 85704ba 81436e4 8548ea1 8a9b499 84623d5 306628 2facb8 5cd8d1 20b323 af2fda 86a86e0 65d798 82a6cb4 b69fa 83b2e6 828fc2f dca092 f26c88 81f37b3 714328 8436aad 8471116 1037aa 81b8e6 8a6c709 259721 478e05 833a772 8b1ff88 424461 322567 85f2468 3cab62 83150a5 8926007 82d93c6 601b9f 8639b8f 28cdd9 aa125 4ae27a 845e112 8016409 5425fa 82e788e 203421 57e85d 84b1828 8541779 880d58a 4a3234 84c676f 8431cf 749240 82c549e 3e6246 490103 2e440b 81b6f19 179822 4fe368 812458b 12d816 807096a 8dd3eb 80f73fc 4d344a 85e1d67 a67391 6af3e0 86d2a11 be3c9b 8a44acf 8d036cb 41397c 83db4e9 80e9c0a 8444fc7 b3e1ed 6b261f 621b75 5444b 80d9097 81f4b81 9f7334 8554b7b b88d81 816aaa3 8723f7e 81b52ce 89198be 8195d17 4654fa 9c504 837ac6d 82a153 193b55 8425ebc 889b330 d35caa 181899 880a593 8270cfb 8711b2a 5eae34 7923c0 80fd2f9 80c8bf4 82ff6e8 87cdc6b 8724b6b 57029c 2d2fe2 8256189 473170 c037f7 9c6b4c 544076 86cb21e 7c5cbd a226dd 8c93ea4 980479 8cd895e 894f469 8a310bb 1a4257 81dbf06 596543 876b37e 863ece7 86c76e2 496d8c 67fb5e 8c0cf18 843c5dd 88ac8d7 1c1ec9 890e80e 112982e 3e5e91 411741 80751e8 86b677a 91182b 12af7b8 824dee4 791f09 8b5b44b 848c961 10564d2 e12260 8c05f9f 968bfd 6e09c1 87c3055 90494b2 5b8db6 84acc33 8abd1ac 80f40f2 8605d19 8c02e62 85412 2c1c10 84714e4 8822d1f 10ab10a 8387eb6 87f6a4d 8d44a8 ac63e5 3c103c a38000 12c2000 875d35d cc8bd 87ac3e2 84e0f62 90ba 551f34 12a868 6f3cb2 4051fe 8177fc2 8521234 887eeaf 3c969 394dde 85aabb3 137b90 db3b88 d1bf48 80ec7d9 1e7998 8605945 132faaa 7fec0c 88cc335 94175f 8c884f1 8d7f415 8277e76 13d3e8 557657 fc52a 6074ba 6f8f9d 8371561 82ce949 46d8bd c4816a 1192186 81f0b58 111b98e 792ff 88d92eb 88cddfc 894d56e 84f74f5 107eb 722ee6 fce36 8e2276 8daf97a a8e42 852869a e8f731 83b406f 8264959 30871a 83079a8 76570b ebecea 80d9e67 8468b79 4a7262 84724e4 6433a0 118562c 8020dae 5c80b1 5a2720 160c96 31d924 86c50cd 62e301 111c238 d67e9c 8fddb10 113445 8d3aa16 86c604c 84cf612 8cb002f 378736 1873b9 86dcc69 4ac082 88f1951 7f829f 7b2efd 8e63728 8849d24 8b3ec4f 2992e8 8c62a72 4ccf94 81b1245 168170 f77020 878bcbf 9af829 b6096b cc4036 5e9111 3b46d6 5628e8 81a667 10502b2 3e1af 950511 d1476a 833d1d1 861ce0f 9385dd 98e378 88e0362 a232ac 802debf 899f55c 88bf380 baa2e0 880570a 4ade5e 1368bbc 8747eca 8c0867b ce7c76 f31a43 9e0ffd de803e c5c940 86aa62a 8ae3d18 8bb839c 8453ad2 8d4c368 5dc507 bd7bcb 725171 80ca324 812d857 8ae4227 8b6e275 30cf77 a83b40 8c66c93 8239bf3 cb99f2 5d7e35 83be027 df7a8f 8bc2f48 82e940 50971f 88271e9 e4447a 8d12253 8181608 83a30 95613d 8b57bbd 814f040 994ad9 3a9751 867506e 111e0 4cca19 ab6ba3 74803f 88e27c5 12fe784 fda600 8e83715 8730472 8cbe484 236c88 8a71fa1 2e59e5 8a74a90 bb026e 88dbd65 9394b3 86b4695 615622 8103e57 871e550 8cf67ca 9051bd0 23f261 fc9e7e 87fd5fc 8d0e32d 857295f 86dc370 60ed5f d074b8 82fd215 848b70d 81ca74 4f9584 1093af8 83236b3 4e4b1b 9c038b d9efa1 8557e86 8172d58 899f157 8a50ae7 88666ce 188fb8 9f1535 8e88c4 8c8309a 85abf7e 8ca817a 1f6bf5 4e9b8a 82675ed 89d9fef 8766b70 69d07a 8954968 7e3e16 3c748d f1c9fe 803f8c7 8d12ff2 a426e0 1884b48 e2d664 800c3a1 730fe4 8fc13b 1aa8ef 10cf624 87dc7a6 eb9a14 53fc07 334ad9 803622a 895dc5c 85d96e7 8ab0d3d df6397 87bf996 88d26e0 46e11f 8146dff 882e1d5 3ddc2a 3844c2 8548568 856c719 4ff228 ea769c 71ad5d 11e902 156afea 7e0f86 8b7b088 92f7d9a 8442e69 8ba46fe dc142e f61110 84fd8d3 a01ba6 3b74b0 8425a49 8a63e98 84a95e2 80ab035 8844857 5874c2 57de32 825f251 84e935a 64e4f2 898583f f4ff27 94451a 8a348a3 65c1bd 8331762 837d62f 80e2083 21e154 4acd82 ae73a6 327098 47725d 60c5a d2bf2b aac7c1 23a311 577ab3 8cbecab db029a 77f48b 84161c6 76a635 8a4d864 8ba6521 41bc49 50a0b3 8bfdcfd 10d6bc 891d849 8764159 86c034c 172b9b0 3bf860 87c218b 4a755 89d84f3 8ffb97 882ace 8cbdde9 87042eb 23ce9f 8978ccb 81399db 1190ec4 84afea 837b035 8367f2d 8a1c45 aeb26d 465cd7 8857274 6368ca 7e9ff5 571a97 866a2ef 27c48 8edfb72 970ca5e 894e254 e2d6e1 801aca5 97ac5fe 8943438 86c9101 63c8df 483bf2 8907b0d 767ad9 86d9d6 4ca1e0 91a402a bc2de2 8922cf 175cbae 81cae99 9e3a4a8 296896 15ffcf2 6d4669 8287966 87c052b 11ba100 838f432 1fd5caa 31d9a0 1664a72 8e0984e a304c 9fb0a1 89ed441 885dac8 844022c d044b 927d348 8316488 81687d1 abb71 869d0ea aa3450 8561e5c 89fb05c ed3885 7a0d20 9173d5 45f31c bf62c8 171fbca 12f7992 8178ad1 985111e 8774151 8e38058 177538c 7de2dd 83af9a 294839 87f2a81 869f4f9 878cb79 24895e 556501 a08b6c 6595b6 cd8072 15569e 8198bc3 17ca87e 8d909f9 cd5a7b c0b347 94d69fc cb5167 8c03132 8020c5b 8877146 83d9192 4cc626 441fa5 8542141 833e8d1 52f983 928016 4a949d 85daa3 bb09a3 8ac329d b78b38 1901d74 821ed0f 79f92a 8771049 88ab15c 77a2b3 11ec62 8c080ca 86b687f 83b7c0a 1d7c66 94664a4 15692aa 339f48 8d6773b 8575fe8 2c4ad3 a2ef49 1f2cee 8936164 8f0d548 7f5bc1 8a8d4b8 8cf10a1 15bad92 25d194 8416a66 8d17b0b ac7e83 87919cf 10b090c 8fe2ff6 f7f163 129f2d8 53cadc 1a4b94 62684f 8f5f5c4 a43a1b0 8a0c075 1652ebc 872ea5a 94f38c4 84ae69f 659d5 8272f3 69c175 8cbdaef 8aa043e 65d444 84724c6 96fc28c ed486f 11c6e38 17532e6 87b0bf6 90fce7e 1060d9a 1bf081a c859fa 1da265 8b4b2e9 f0d595 afe50d 1c85526 8af9627 131725c 9125684 80a43e4 8356067 893f078 8765df7 800ecaf d798a0 8e4d518 81a865e 8179d7b 85cfba8 8b70e03 90a7c8 493b61 89b5056 d03a3c 821a100 1045c58 84f0d3e b7bfb7 17be006 ba020d 874870c 8d770b8 8a37ab0 884f818 863330 c24bd8 8e0e6 e64af 8af251e 1e3966 8b82c9d 22a5e3 11ecd38 8c923e3 b58806 d77f9c 7c6606 865c184 1da6476 8e095a4 1077e0c 102680e 9fd66be 119ad1c 8de71cb 80854ca 80a7524 8df0ea0 99a1bb ac403d 8490b30 8091718 813a84b 14dffaa 986bc8 b3b58 f56299 8ec4299 d20eec fdd08b 8ac84ed 3952ae 8f95c14 8123a24 c9e35e 805fced 8abb9f7 3911da 8a81080 65bec 6158d5 14103c2 819a6bb 8c6035a 853564 8765806 1374d72 382a6c 896d99f 90268ba 88a91e3 9130214 8acc89e 1745cb4 14ebfc 70b53d 829d575 ab8912 803a25b f9fb3d 872cbc6 4b1854 4d555 85a024f c80eed 86afc1d 8ef50ff 949bfaa 8458492 10fa662 2a9f6b 995fabe 882795a d5b4a abf4c2 80f6124 921aa42 345ee7 650698 4a4a89 89b9964 198e55a b363f8 1346a32 806e00e 954fe8a 12b265e 1bfc72a 589221 2f74be 8a96a9e 86fb940 4ec3d7 1b5030e 96978f4 4b2d08 90203da 879ceb7 2419af 8905bd6 8946d50 8a3082f d5b141 807fd96 8feb169 8196990 88279d8 888aa9c a4a4ae c3bfed 8d5eb85 a4ecc7 2d74c8 13c69b4 838a268 11a59f2 1ea8536 7d66e1 90ecd64 8ffb7a4 9191270 82af017 662bfb b44071 806e9b 118d520 8ba69e3 8f44b2 8b69d30 d3cf48 1283768 877aef5 80e488f 1917e5a 1ba6880 4fa376 1c4765e 9f9e340 116cbe6 d82a0 a317c40 bf08b4 9a53c98 3cfddb 133202 8ff4c10 1d4189 2e7bd 84c7bc2 362115 4746d9 dc07b7 2a91724 8749d4 14b6824 8db0a21 149f18c 213a2ac 96d3958 d0e0e 90532b6 80ade9c ea795c 21cc2d 915a076 d7da21 8c79c49 92fdee 6eab1 182ef00 965e8a6 86f220c 64b84 90b7136 144dbb8 aa76f1 9063f52 9b03f42 89e5355 89f2635 888d52e 102dbf0 320a5b aa4de 86addd2 dfb749 f25932 efdb80 3d9d39 a2a8cb 84debb9 37a1c9 a8e7f0 149dcea 9d37ab4 a740d1c 84029a7 71d011 16b571 91db048 383197 8c412d0 8566a21 87dcb7f 3083b7 5ec82b fd9d01 8bb7e25 77d65a a27718 a70efd 888ff8c 8e02d62 8366061 8147a91 19c079e 29bd75 8a62d1 ec4543 979529c fa99e 1307270 94d059c 86da730 89de0cc 840214f 7fc1df 8a55d20 8342457 8ae346b ec788d 8c6a450 8a21d35 859e6dc 8f694b3 944b144 a013c5 1ea775 8fc325 16bb3a 88dae6a b5f9ff 8131073 c78ae7 7d3734 16d6630 8384083 8d87514 91d848e 8cc35eb 8417cc4 1272882 8a89a9 823818b 878342b 3ca89a 8a39e48 1011b56 3f8b46 a2fc7f 9a1e38 7bf53f 1adeff6 805448 3f2d44 85ce778 108e288 4d29ea aa44684 144777a 9394724 866b7f8 847221 8522087 83d2684 a4e827 eb931d b0e8ff 1f1cee 13cc93a 1374436 832480b 83eb0e 87326d1 929365 88f846 8dbdfd4 8d97421 840bfd6 8b25064 7b77fb 80a81aa 8f6d507 337f7 825f632 8e1dd5c 897cc12 e5857 9b8d920 89d103e b901c3 8950607 ae65d1 d11b23 85b45c1 921a8e4 84cedc8 8574d0d 8473914 7a7607 805bb11 81d403 85775c3 a64bbe 40abf7 1abdcf6 17a3bd ff9c6c 86ac46c 1fa446 7bf5d7 c367bd aae049c 9fd17b6 124bbf6 1dca05 8c8a939 9417666 648329 97ad73e 897575b 8402a88 ec625 bc1bc8 e38bbb 83b1d97 81405d2 bc221e 269f1 83a143f 14ae6d6 610f6 83dd97 8204c5f 98edd4 81395d7 ffbf98 9760604 8780403 85e8068 8128609 963c240 1bb285 8c07dae 84be198 8e3405d b36c4c 8f8b8fa 8fd1c68 8d6c540 2856bc 8edab23 ae360a 94b5554 8873b14 1276c8 ea91e5 9217df0 a0aea8 46b85a 80a5c1e 74d02c 15eede4 8a2fdf3 248676 26ca2c 8857894 39b08 9a4cb08 206c8a4 f548b8 b607d2 9cb1be0 e0f57a 869daaf 1aa63f2 859a1bc 8543fa8 81ee8b6 25587f 1cd8642 83d47bf 899ed07 614ad ff7bc6 144a586 99a7ccc 9bfd49 964c668 9a9fa2e 1a1c598 9b2a97 8b6ddbb 83c6736 c54910 49bac 898f498 1c1c3aa 7926d5 80094be c272fd 82968de 1c0b2d2 ce8bb5 9dc1a88 9a1826c a45af8 8659906 b3c69f 8974039 9eb8990 35949c 90a3a54 81d2895 91dca38 87fe8e2 92c5ade 8b67983 48b61f 84229df 84c58e9 866e5eb 90328d2 914eff6 8d852ec 81299d3 88374b 872a88e 87d52df bb2061 83e49d5 12f0206 8e916f4 78de95 8a47ce9 b196b6 9184b1c 40a97b d9bb87 8123893 a4c2608 9953e1a 5e06a9 570858 820ae14 8c38a97 87b50a4 8e13db2 cf9c31 8c2fde8 85c539b 96e77f c013be 13405f6 888e8d1 132cac8 11098a b2665b 12a0938 883e3e2 c2bfd1 17dae42 7e8ba1 1150f10 13f4b4a 8f26dc7 6cc6f2 12d6cd2 8a8cc11 8f936ab beee7a 8f3da0c 649567 8114129 84fafbf 87300fb 8177c83 8c07b21 ac3bf6 8a741a4 1326b72 8eaa210 9a49ab0 4933ad 80c9610 9d17efc a14435 791bae 78733 199b20c 1ce70d0 9e1c19 8c11bd2 8a3c32c 9e66386 895a0dc 9721488 c1eda4 18c191c bef922 965c5a8 8e6a9ec 8c60567 15da86c 47e32d 10bd99 762a0a db06f0 18967b6 73713c 6ecf66 88e0bbf 1c3a0a8 63df79 8f0eebc 16d0e5e 9b85e4a 8ed008f e2df86 95070a8 734eb2 8004cc9 68ec91 699d30 c59d4 fff652 14493f2 763048 a49a9a 868455b 1f730f0 95c210 964c5f4 9c7a744 807212c 8ad6d19 4fbc01 91b3032 899b6c6 87200d6 2b0900 888de04 9507d0e 8495ee 874d42e 53826a 9ddaec 82ea081 888bbba 8f457e6 97680c0 8b0112f 81d24e9 86b9e15 2df4d e3473d 87af446 6ee7d3 833cc0b 94b799 8029125 825fc88 88b00e5 c0bd6c 88f6338 ac031a c8783d 567d7c 915a00c 8d80cfd 682727 f1db 824f26a 9b31fc4 88a4062 572286 f6cadd 964c1ee b6d99e 82412ee 90e5fde 12973ac 82a5e05 e2405f 35e80a 7716dc 13ea74e 9404abe a0d54f 802f676 521970 8b625c 16ee18 8df9e91 8064fa1 234131 9ad6ff0 8312947 2b06f7 8a22ca2 8091a05 88c4f58 84d1e34 8707a43 92dead0 8adc32c 834fc08 81fd13d e4dba2 8a0fc07 8f01bf0 8c0b2f c93431 89a251a cdbc33 10407d8 c52d32 18baf94 1dcb72e 81847c9 875172e 94442c4 9dc9056 a206f0 8ec7283 2064ce f5d257 9198e4 8c4130b a38751c 8d624ac f13166 1119382 8968255 589586 3be323 2c5e1f 80f27f2 6bcae4 9d408ca 1c02a14 bc51ff a1866d0 8d96d3 8f61f44 9eaca90 a0b19 9d21456 c6e220 92f6b52 157fc28 375f19 8c604f8 1c63e44 187d58a eebc5a 12ff872 8dfb286 224e890 103ee5c 8db0d3d 89ab6e6 81a2059 828d76d a9cc76 8d7ad7a 824cf2b 7bedaa 773a debc9c 9a82320 bdb239 d11848 baeac0 8c7c44 b5afa9 8a4dc8b 883a3ec 8fc38b0 947506e 122956 4750bc 473195 d61d82 87f2997 82e0ff2 69d9f3 18a0fbc 749bad 29db21 9534990 37b1f8 8f7a97d d5ddb3 127f7e2 2d9af2 8aa00fc 886b446 8224953 b8dccf 81b824c 920e91e 820e2ba 9e0be5 6ded86 95d1dfc 2da38f 816810e 90de206 1e6713c 84e75e7 11f7ab2 9e6a78 66e83 f41e62 8d0e5a0 78a711 82ef527 119b7b8 43f01b 82798c9 9563ddc 840e38e 3f16ed 8b07ee5 6fdb6f ec9d06 1db2a 86878b7 94f9866 87e6406 8815830 95e27f4 8fd7711 b7378 85673aa 8b18e6 9455788 8ab78d3 c1bca7 8065987 8442944 daf4b7 5660b9 8779d1 9bbc14 809217a 9080cae 94fd758 8c9359e 8d3f1df 10998ae 86c4d2b 86da0fa 85b6593 95679f0 96bda72 861bcd1 9128f70 f64c24 1dc8446 87d797b 1c6f49 89ec1ff 1157b16 873dd32 e702fa 8f2a90b 14f6b46 2e7ff3 91f5a82 a2ab3f 8d63a91 9691950 18dc19 905ec04 1a17a5 967470c 1473b1a 824b03e 971d64e 1250d10 6dd8ac 16429b 125ed28 8150273 6b885a e9ff99 850692e 99f69a8 8191504 8cbdb22 212c9b 8791205 940d9b2 e1b76a 931e17a 117dc70 9147fd0 bdbe17 1a5746e 813e6c 3c1f06 1072294 88d8239 51b101 2e5774 a32badc 806a54f 8233d14 b3a697 2f18ac 8fec1 812e891 a3d0fa e52c3f 285f37 882c583 9c23462 80e5b4a 87c1d45 1363b8 171458a 87aee34 867247 84de882 84f1d49 f6268b 2e9b73 87f5d70 81221b3 83035c7 2e7ca0 882a2e7 313afc ecb7f4 8e8a778 2e5180c 1b9868 f97283 4bd85d 8b8c756 1163b9c 862f299 a29c71 114db76 10741da 3acf5a 277e88 8929736 f1285 2dd1da 59b055 861f2d6 1d6abc 186b03 dd560 8577774 33b0bc 820a362 8c86d61 71bad8 3f3113 80965a3 dbd763 83a1b7d 94806da 5b1d7c 8c21c1b 1a12cf b18489 74075d b68955 ffe082 811b1fd 8674ac1 8c7955f 85088e4 851d5dc 8995b9 e1c31 8a86494 8755da 8eeee46 8350d59 82ac582 84a977f 845a9b6 1814106 8cf42f0 49e971 883ff24 f276de 2f3fa6 143ea3 546ecb 9cc8a8 886ac7e 8b8108c 8d503b 8804b26 864f091 a9548f 960c818 69d0a1 8eef30c 120ef80 2c1cb5 93e4b78 f157a8 29894b 70c451 163f106 848eba6 16629e 3ab528 868eae7 8ff806c 883862b b2c53 c0fca 833750 88c5efb a0a01a 8adb351 12d44f 9972b0e a75ed1 ff1d2f 865c3ca 1049098 102fcda 99cc8e6 5f13c1 8480f35 87ee097 8b2b372 adab3d 138f95a d73878 87ade7b 86f86fc 84d9d8f 678d00 f4c43 8430dd8 93e6254 3f5648 8b8222 b3af0 12e55a4 94d242e 52f93b 8180cf9 891cc1a 4a18fd 15ac34a 892a9f2 83839ed 841e268 a7735f 94ada7 82964a5 70086e 8a06dc5 25ba538 7ffb71 a9faef 5a35d3 4f334c 8337cf0 85224e3 8d91c 879d275 9dbbb7 75d804 4e911f 96d00b4 f31620 66d227 a0e0d 83bb85b 21b0a0 5ec9a3 8b00d64 657957 a19e64 8df1ffb 88f006b 6c6fe4 8b4c6c0 8023d08 14b3480 11003be 95e4f90 83bb6f 38c446 221fc6 8c50bc7 8119d0b f2009a a8bad2 9affb2 89fbb21 9551726 8e1590c 5028ac 8fe38c c0331f 8e3cdab d27d79 9596c2e 8519986 901de38 189f80 84a787e 3bc3b8 8527ad0 854ad35 83591f9 81151a7 846e0d6 562e6e 564e1d 40a498 8b35258 928e05c 6f627b 81fdc50 82f52f0 84818d1 96285a2 6045a3 935e048 a7bb52 89af072 87b4610 8316e3b 824af04 81991 153d4b2 89ba00b 8fef1aa 5a984c 4aa173 87a47b5 998ab96 88afdf8 3639a ade93e 86cc425 c90706 904a224 8744001 984523 3931c2 cfc64e 8bc07f d44a0b 8e8b348 9487a1e e58cdb 587dc0 974839 9754aae 8be2452 10dbfea 28802f 20915a 119c1b 4d09fa 9a6170 b8486 813a830 8141516 83be204 591e5c 886ec65 d7c53e 8bb7a46 99bf8f8 84133dc 82500d7 37d01d 81ce439 93029fc 891503c 80180da 7aa3fe 12a9a80 9356168 8042bab 8f2147c 16a7640 23e630 9ae710 88258d8 490682 8187726 c69b89 abd227 13ddde 182ee10 11f51e 8a3fa6b 86d2c28 8124023 88dea91 8e78d59 8aa501c dee797 8860b15 95faa9a 78dcff 749b02 88a2f07 8f80200 8b34ab1 884b5b4 da19e cee711 81e43c4 8732387 216d18 875709f 11837c2 8a60526 a1b8cc 16157a2 4e7628 215280 9177f26 159c5 9354ea0 3e0df0 29f91b 38c504 941a2d8 1c53146 5d2a5b 43114c 94aec60 850ff47 84e9284 870702 8aa83c1 8a8f5a7 3bd88e 131cd8 4ee7a 8a0e5cc 8c45556 43c5c0 1f10b2 8a22a6a 8330df6 8a4b5cf 838d72 96e591 9666e98 81fbaad 961c8da 840e61 66ade6 61a050 9db66e 104464a e6b559 f9f186 377697 88ec2bc 47e731 9ac9d 87ae786 90fe3e4 8ce48eb 8c63f2c aadd3b c19d0a 94a0bd 80a03a7 8bed429 149e16a 88b7625 11d5662 9e1db4 8f10f0 7401c 193823 2b7620 9a0cc92 85c5aab 825fd7b 925cd3e 1acc0a0 88ab2a8 3ef44b 8c41aa1 3c3ac6 64ca35 a482f6 90aea40 82ba61a 30128f 91f383 865c58d a0fbbc 8cae94c 8940974 8101307 6d02a5 66a0a3 2892d9 94ece0a 85dcf4d 86ba228 62eee0 8146e2 8bd6c2f 579fbc 889dec2 13e452e 8985c93 5640d4 b3a32 15a46b8 80bfeb1 987393 5c9062 81f38a5 3f4390 9d2c31 80a642d 141e0e 4266dd 109302 8e04369 8bb542c 17d236c 40570c 966c9fe 85d1690 86636d6 806d312 8991459 86fe6 83c83dc 38783a 807b1e7 8050e70 9048156 8037438 89bb30c 191738a 82d8c6c a23b92 ed5e6b 14241a a7c9a6 8cf8ffd 84b3516 9f692b6 8c2081d 8fbe1f 8435b82 8c9c12f 150ec8a 84e4000 838df77 8e88ce1 84c44fe 124ed8 cf6bb9 812c71d 81bb3d9 80d3ee5 8268e7c 895860f 579a09 8bb8542 37761a ba7c2d 8605c9e 2a5858 8827e8a 173d502 100690e 9ad26a4 5be851 887e3b9 562cef 825b29c 872ae29 a777cc 637a95 10135ca f8c06a 830c0b7 833be85 6c144e 3d89b9 86759da a566b58 8ade59e 8f6aeac 4c6bd0 14a4506 1aa53e 8ee0e27 877aebb dcbead 346ea3 cf44e0 23c797 337ef6 82fe872 27383a a6bd42 8d196d7 8a0c159 829db 88a3e44 d024b1 71c05c 566c19 85e6ee8 3058dd 671913 80da191 865f846 8ae23c1 c1650a 6d96d5 86619c5 8185604 9b1d382 81a7248 84e1292 8045521 829cbf 414b7a 893f90b 892574f 85fe594 a8fa29 1352abe 879abbc 9f8d85 8207ff5 11426de 8541dfa 84e744e 8268ce 2671110 81bea61 81ac72a 80156f4 b52bb3 30afe3 6b2c8e 8f4be52 82a0c1d bad0aa e8167b 8a0415d 8a57b90 1b12628 768948 9be74e0 8456633 82acbaa 81dea99 81113a7 8660825 8616753 a84f1d 852506d 982fbac 83fcda4 967c23 83292eb 7da62c 8a5e790 c7f411 64a6cc 8133326 74065d 359ba7 82672ba 997e822 8ec5ddb 8a37ff1 86e7ac5 59c0bf 1ea5ecc 47270f 915cbcc 8d0fd48 82d91ca 5b3793 d1fdb2 818f84a 816ef6b 6fa95a 8269181 932d29 12e0ea2 859b948 408115 b9e94d 8b67408 f08c51 88ced50 1c045d8 84f249a 99d00dc 15a974 27cc81 8ace627 3a2d27 8d27bba 102eae0 dbd8bb 1153012 4d3bfa 857b7ae 2c1d3a 686205 7e13fd 91db214 9685b82 8f4fbc6 9f6d2 2475b1 8a4a55 44f782 8a2817b 812bd0e 9acc624 912ae3 6b20c8 804fded bd7ff3 8b5e850 63827a 549b21 876b8d8 8fcbe03 82549a0 8925c79 806fe 52450b 84501c0 821e95f dbb5f5 a38f8e 185b58 d29073 8ad2ff0 d824d8 fc75b 91c2ad0 ad45d9 915509a 80bdab7 24dbcb 8b65420 86401cd 6e5e3b 822a7eb 8355976 90e6e52 f35fb0 12b8962 92395ac 802c761 8a59130 1349a52 86ea25b 4332c7 80f0bf0 10bc300 80d1c83 8147f11 da104f bae551 4173f 5f1761 8ad1b50 90048a2 63f439 385e86 8050efa 803518e 11cedd2 3c8f9d 9b4dbc0 9550b6 85b897f 859ad04 808f035 855610f 85eb7f9 221cad 73b161 897f0f8 8ec0678 79709c 8a3384a aff657 82a586c 208feb c648d9 ece1f8 cc8a87 78fe14 884f6d4 9623a82 8972e73 84b457a 71b6c3 4698e9 128aa44 81d4b4a 5fbf1 822cb09 805dd1a 226885 46bda4 19edb1 831a330 7f27d3 896e25e 184ff9 496b3a 81fc4ea 525e6a 9a399d 832f1e8 782391 8d6f547 e64559 17444d 95a86ca 81ecf9f 87f3705 64dc5a beb720 967577a 4e478c 925141 e1132e 8bd407 3b3861 7b3139 cdd29c 857c95a 8651af5 9529bcc 8952fd7 899c8fd 8169d4e 16553f0 c1cd9c 95b2d96 3915db 9342fce 7bb697 72e9f7 8e4122e 82edc35 8b7a806 149ae54 d4e4e9 87f2718 8b14744 284921 8853349 d6f220 332be7 58d15c 116eee 1608bc0 58c29f d9307d 86bba08 81b25f9 f25fcd 178610 8399d35 649991 98e9168 8c64e9a 8d998bb 8764852 c710eb 1108e0 91751f2 8a4bbc4 8ca3074 5251d4 aa0138 8e0b7db 846c526 82d1e40 50d0a3 87dab40 909ba6 8392f1e 90501f a25456 8915e8e 5e7aac 514aec e13feb 1264578 24c59 48475e 9f1ca9 9bec2a 804ab33 50a2b1 cfd746 855b34f 915ed5c 80162b0 80cc539 80cf319 1141dc0 1493c5 8f5b9e3 670200 828ce30 8c5c25f 8e33595 d282b2 832c777 196b42e 8516ffd 3602ed 68a973 cd8114 83b34c4 83513bf 850eb1b 96bad8e 97100d0 80a8d1a 73fef1 9bfa49 115f09a c3fad8 85ba287 899a7a1 8aae756 833e113 ad2fd0 91b9f10 3220e6 6a14c9 88e37d4 85179f7 9e285c 321f5 5d1a2d a99c7f 916c392 107bf4a 8962fcc b34287 81f5e22 89008a3 781842 3c6709 8a4e5e 24adef 863aad9 6f387a a3af28 57cf10 81ea304 6fb71 46bf79 6d6bf1 81127d6 11cefd2 973ce78 336d73 4aab7 91172f 1265282 4a0209 8454ee1 23e92a 8a5d065 997562 3d0742 877fea9 1bb9c1 8481b77 7d18c0 b0cd36 8d92d36 8bed0f8 82a0599 8d171da 9abe85 5f1e5a d8a965 7d0234 5fafcd 11a6da6 818ce7 842b0b4 b42997 80f692 808efd1 24399f ebc6a 3f08e5 815cc20 443a62 69fd42 9dfb77 8130eff 88a4b98 821f91f 889c455 85266b7 860f4f9 5bdba9 84183b7 18fd72 84689da 8f2ac71 1e869f 83521f3 844c42d 1f2fd6 97fd3a8 b2265 a5742a 314798 199fa8 6f5b74 336785 255cab fb4c7d aab943 58f9df 570bc9 40d27f 7f54e1 8151d6a 81ed501 680787 8697f2a 804ec1c 8806f3f 68b24c 824671a 6cca52 88efb7c 8390782 8c498e5 e16f6e 804248f 1260c4 876ecac 824a607 14d21a 9dd9fa 2a918d 9571520 881f761 85d9550 84b9bc 69d591 b627f 86b906b 830da1d 8df893b 5f81dc 82596f2 83123f4 26f5a b2c754 625c7e 8623437 8598d8e 4dfbc8 851c7e8 116f0c 599e47 92cee10 3394bb 87b0d68 2e8d6c 2c41f 89ba89b 5a6cbc 5ea1f1 81b1834 8095d79 84c3d89 b727dd af3ff9 12d45c 860b285 5e3edd 6e44ac 96de8b 2d39ed 6f626d 8a2b538 736589 8361562 83be3dc 55f713 4e2243 4b0289 88ff1 9170f58 29e40a 23137 8b855e6 80fbc1f 9507e0 9a0287 397a00 d6408 1d51a0 463eb2 832245e 8a870d9 114ad5c 300650 131123 86431e6 2e54b5 54bf9e 809377 8adf0b5 8239beb 831e89f 832a247 80fd58f 817e390 82b989d 84e1796 331009 113bf7 83384b9 88e2a93 6a166b 2cb87d 49956b 8270cca 82214b5 40a635 1e3ab6 86943b7 8697227 2acf0d 1b696f 78d383 80704a8 336cf4 4f0d0d 50579f 500101 84eaf51 54952d 62cf4f 819721d 23aa78 578723 abb8e9 8251107 8372d7e 81567d5 8892799 860ed8a 4d6d23 111f5e 831bb67 3321bf 378562 78730f 1fe8c7 8733d09 83ba98d 81d8200 505f74 5c583f 3188bb 83f8e32 8205c9e af9397 84aa915 6fb904 87afd3c 4e413d 427e04 bccf9b 6668ba 85209a8 72f677 89116ef 55a8a1 86cb41b 87a0eb6 21e61e 4c74b2 65a405 876d72c 8778aad 82c5e29 c3d2d0 863f66a 8efa3 ce2948 83903a3 3efdb8 b1978e 202df7 726186 6c07b7 e0f2e 563285 89fbf73 80cbdb4 86c31a2 830f9b6 81b35df 4f335d 85577a9 7b9957 8ca7f0 b56e1a 819107c 827612f 3b038 73c98b 76a8f3 816b156 844da79 87f6e4d 80677a1 821acb0 837de1b 86cda0 66e269 86342aa 8102493 7f6560 2c16e4 36fe7e 8c5f2e1 83afab5 82ae4d0 8420cf6 1e3cf8 b09e62 819d160 b277e9 834fed5 39d7d4 2f9a3f 883f9e 4331a0 809d427 73d183 85d494c 2eaa77 23f5e4 8782c40 81d9335 83116ce 801ad5c 2e8f6b 86477c7 1a964b 8079fb7 70bd6f 79c743 83b33b0 5ed8f7 8073954 8e6a7 8796355 8177410 1c72b6 84f4221 6783f debf7 9c50e 8566de8 8752235 86bd774 57d945 74f52c 86fa9ed 1a7265 80fdc59 5c1231 80c148a 81ef717 84b42da 294100 2303f9 4b8268 168d10 415046 9395 6e8a2a 8757f90 1bd5b 81ebed8 54de10 8559d57 83c754f 846f8d7 842ad29 2e251c 85bea52 80086bf 27b20e 819cf5c 85d1988 36a8eb 8258664 39125f 82f04 423145 87b2201 826e21e 5a9a93 5f8874 5d93a0 841220e 830d68c 327cb1 4c0838 83ddd86 3def42 8487552 841a9cb 80906ab 2cb257 437fea 847855c 67d51b 49562f 598b87 675ac3 15c09b 77302e 86433dd 85fe63f 33072a 829ccaa ac413 5579db 82dc37d 8034abd 82e7244 17c8ef 8701ccf 31847f 8217fb6 84eb9f0 72e2a4 812d043 842d83a 58c036 c14ce 1f1089 49d6ac 6118f3 469321 509e8d 4a9010 127f87 69a61e 3f233b 25a5c5 8012d63 6ba86c 5eae6e 1d3e1d 714078 832f52c 874af88 8408807 83b6b74 13a679 582830 f26b9 85230e8 4aa446 3f39a1 7ad200 82df890 82ecd1a 827eec8 817e88e 855bbeb 205f4a 6c964 84c758c 8785ba3 81adb85 8417db3 8010ac7 827c695 3881ea a1e19 d04a5 81bec0e 812a7a5 8605110 833e582 83f1721 196de4 6c2768 85afb6d 8677c84 563e07 533626 8404563 5f382a 68f1fb 86b2e76 57d42e 8706421 4b6ee5 80a79c8 21471a 8333c62 8553850 6e950c 851cfe4 80f0b93 8770b66 8582778 23ca7c 8539e1d 1cf4d9 10e6a0 6d07de 29f28d 3cc01e 81ea08c 3b39f7 842f992 7264c8 80eda9d 8608db1 8122fd6 8439269 274a25 55d095 86d1ddb 84e7938 1d4580 238509 46041a 856e33b 72cbf0 8330191 8063189 83505cd 87a6e32 6b7a2d 61b161 80a4067 83bcf5b 84e6408 805445a 6600b7 251d58 8268dbd 14c4b7 49fb53 312f11 80d5b99 bc84e 6d2d4c 7ea36 790440 656152 86b3400 87514fa 80eae7d 69402f 199cf4 6137cb 561d11 852c95b 84cffb0 8591d6a 853f77c 4d3989 8738a2e 1f13bd 1e4650 8550330 810845b 5bea5e 492e7 4b8f54 873209c a8e11 812fb52 758b87 1ce5eb 8661914 8186671 86940de 86311cd 8066d81 861007a 8110a10 1914f3 7786cc f171 80f3a42 f47f4 127cf1 82d415d 1c3281 83216ee 5a668 84b5ccf 83df698 83894de 83e60ca 635d42 57594c 8721a14 1618fb f40de 53bca3 836701b 2886ff 8295880 7a9c2e 789228 4b9fc4 82dc096 4ea7f7 3333b8 848110e 83425c1 844b543 835e4a1 6b0cda 70aa17 3a202f 47140e 1e3def 7844ea 84cac71 5d165c 1eb29d 82ff44e 82e4810 82a92bd 8114e40 831312d 8763949 65b6d1 7aa7e3 854c9e1 17c221 2e9049 577a7 810c63e 586745 839d2fc 849c4c3 82d81e9 817fd90 e9988 83772f8 52275f 61689a 31eed3 8787798 26f754 76d339 16be7d 80a7416 818d4fb 1133b1 87ab90f 877ff03 853239c 14c2d4 3e7a0f 4c514b 8628934 3c7433 3dcb7 128460 606d7b 78ef40 86ef33a 30775b 4eede1 8590ee5 62ea53 836053b 184f73 811bbe8 4171c6 8499473 611909 78fe50 4ab7f0 8369e4d 475b5d 74f763 838d407 187059 1fe799 800c610 32148f 2fc5b4 2d7eb 5a77f2 8459aa8 33c0c4 73abe0 8698568 469363 85c8625 195a5d 4bad3c 83fef7f 4c2104 86047d7 858beb0 74bc0b 1fdbb7 2cfc63 32f73b 825dd12 84c3afb 1eac38 85bd039 81c33e0 8544f28 37002f 8682ad9 7aec48 626ea7 1e9a1e 822a42a 10a394 76863c 85337b0 5de49e 81bc980 2e7238 86b9c0a 950e7 82c210e 65ba 8691381 5220a5 4e64b0 3dbb2a 824a393 4663ef 803ee90 8060fe4 479ede 80da7f8 1e90be 833684f 85a2b7c 802816d 85a55ae 8756d82 81c803c 5adeea 867c1f9 871067c 832c740 86f8d65 8268694 8253bc9 501b25 801891a 82e41ce 6bec70 71128d 84fa720 b68c8 30e9b1 819c815 8250e37 84c2106 5536f8 f35be 445366 87a3f09 11fba1 877806f 853f45a 8354d3d 194767 81e4684 872716b 85c504f 8193adb 286991 409607 8264d89 84d76e4 813e50a 79bf93 513890 5977f9 87713e4 6417a0 172c8 81cada0 6ea744 4a7b41 810b2c3 532a91 8659c84 81e992c 5a87e0 878ad90 321d03 383f67 5c250d 34e45c f9fbe 452dd3 fc48f 811c827 855588c 1ad328 84ff2ea 24f82c 75ab45 838cb7e 819f7f4 81c6548 8708456 83f5b27 844a4df 83b4680 738fdf 8109ec9 80b4f33 127cf1 85ce7e3 2e3586 def32 82ebd96 84f7738 303f4f 8432f87 233268 8507ade 309330 710711 5f07fd 112509 8080225 79822 8411c81 60821b 81f2ff5 8010f74 7434d3 20fcba 801921b 85b42e0 5d9605 8daf99e 12e8a56 82d6baf 880768e d1353e 104c6a8 888a47d 8becb72 2ee0dd 87f1af 8c4e2c8 8e0b184 85c0122 86742c9 84da09d 15eb0a f506d4 942d3ca 9032830 2e5503 3b542e 833b53b 8821ded 8616853 4a7d88 2d5db1 ad93db 855d2e6 84c7f1b 89fea8e 81223a1 990669 1df01c aad3ee 84a981f 930329e 8a71640 402b98 8ddc5ba 842e075 870cbd6 805d3c9 86a38e8 80dd7e6 da80e2 8679f7f 760a69 883078d 4c472e 86ddd3f 102b84 f85d4b edc6c 8b0d52d 3a336e f68247 9226e1 1bbe5f 8903da0 827377a 86607ea 803a5b8 c8206a 85b36d5 3a36b1 1165514 13f20da 8a664bc 8727a09 399589 4d99d6 88f0b0d 8bdf19a 8120474 50747c 8172f7b 8933f9b 8b41d2a 89dff52 8420b48 778e1 3ed12e 415ad7 8c126e2 85659ea 8752bd0 6c3674 703ba0 8d5f4ba 853eebe b10abb c39d41 8e05a0f b4a8b6 e736b 6b34f 4a6aa3 6c302c 1210b3e d6bb3 a79d01 de0821 2aa0df 8857999 eb9c74 8c3ba71 814174b c47b10 87914ed 1213fee 6bed15 8cbc1a0 d61b5e 89dfed6 319903 70d98a 45e26c 93e1b0a 130d312 7c9277 89b7281 86d4589 83b554a 8ebb10e 8845cd6 8b5568 8d5b6f4 944c8ae d0229b eac209 87d5c6b 5e9bca e4a797 8410bf 8ce7b22 92813aa 4c3b69 82e3b73 a94bfa ae8abb 92ab1e8 8f5c0e9 9cd74f 51ae20 924503a 42d314 84b0495 3b39ce c22e67 1015cd c66b08 8f05ed0 813637c 8afa0d6 ee234f 80eb8b3 84c1d6e 82e46c0 8578aa 82b8777 6a8a9e 60fb66 32f9f5 7782e9 4d0238 dc049 a0e7a3 85499be 8222b5e 895bea5 9128e7 8694133 6aede1 177d1fc 8b2f0d7 4ed23a dc56c2 1197432 2a575f c30370 856ed38 90e3d2c 8d4f279 898ba7 8855397 85fb591 8813056 856ac02 bc271e 857839f 4facf8 14cbad 22991c 8432453 6a2013 8f7f793 8ee14be 115da74 8ded830 88c33c9 8140fc5 8814dcb 8f09d19 e66527 8f18cfc 8791f21 81c1f02 8d9a45b 263f85 698d77 661730 3f147a 125e5e4 90a473c 8983df7 c572e9 1244656 9e63e9 1485f7 e7dc7a 81b51f2 547438 8a7b482 807a487 5f7e3f 830a85d 83eba37 908f8a 402b8e 8412b3 922b7da 804414a 4ec7c0 bfade4 811665d 3dd513 901926c d2d436 302ba4 fca9ba 8c8b45a 9514d86 4c6db8 8c35c10 161fef4 893272a b9e036 16578f baea0 85bb2b9 a4e5d0 873287e 8ae10ea 89f8a24 8a40097 8b7f902 afd4e7 82295a8 846cd76 8438be0 82a90b6 115fc04 253b0d 80db9d6 b621fa 88d8ca6 12b82c6 8e346a 6bea8a 804b42d 89e2773 a6c67a 83a127f e69103 4e6c97 62fef5 7f01d4 4af590 84167d7 2c0e98 df317d 82c62b5 25527f 8a9232 54d7a7 c02a8b 915bfc2 8016ded e6b343 39e61b 2efe9a 37bf5a 11690d a7f3e fa286b 84ffe1d 910f35c 830f56a 744aa6 8d830b6 738e3d 7a37c4 8a293a1 eaaa97 8727aa7 872b2c3 821176b 6bb86d 8520b89 80671c0 95256e4 8dc2a82 34fc4 8c216f8 3bc072 6bac50 9218e2 852390b 8761366 8123387 4983d 8b173eb 3cb92 8a86ce4 897a990 807d000 84c10eb 8b073dc 7acda3 86b2411 58bbb 3f3953 83110b9 541ca1 757acb 8dcb79a 85e6f7d 10af440 bd4726 8018087 b6ebfa 8604d86 8acd3da 632be2 10a563c 9995a 41d22b b1a454 9afa98 e6da16 8417375 214555 8d6d756 821eb90 8665965 8325d7f 3f22b6 ef299a 3bfbc8 9f2bc3 87799e4 6afb76 8277518 821915c 3b3a37 81414e5 80513eb 14cbfc4 8d45bdb 8225099 1fc25a 230972 dda69f 72f6ca 855ea21 8214134 66347a a1a486 63b00d 89fc7a9 31a952 9f6c0b 2f33cd a70162 43bb18 bc0a10 860b4c8 96b0a1c 8e72714 1a256f 85192c4 76f138 825b156 80eef86 82e449d c1e057 83fbd4 822e0f3 a753c9 ea198 8b1fd6e c0b985 816f8c6 37b1c0 8113e21 8a450fc 39f787 cf8b8a 8039e1e 809655c 8fd5a54 29b272 b916ab e33a95 8d933e4 80b374c 810c3dc 83556c2 844c8c0 bff02 e7b1fe 731687 870b9a9 623cc 8b10934 87e44f1 5a184b 88aa4de 90b72b0 1646aa4 96ce5e2 f223a2 9f481e 87fbf3b 84241f2 806a255 867b798 6b42d3 8bb3972 1b8820 8bd28e1 8ebdee 82786ac 79242a 8481283 a1ac86 9575ba2 89f5303 89d2146 1af55d 4434b2 296072 71e974 532ef 8089b40 9e6bdb 66456e 8c9a5a4 7833b2 899670d 8b8197f 604566 8190623 26b9c3 b75ed 8b893a7 4db7d1 14d1cc 86b32cc 10d69c0 84f73a1 3f0cda 1847d 80f4c57 bd2707 82002a9 7aa98c 48f668 8281a76 41377e 5558ba 24ed2f 6960ee 830a422 931cfaa 825d3e7 87cb450 823f7ea 8d875a3 867c6f3 8010d71 897b3da 7799fc 8fc6aa9 a152d2 be2215 88aeb71 8a55bc0 81e846f 86d15ec 8c565e1 717bef 4268dd 8257f86 898f758 85faa50 117c2a6 8c63a3 7c05d8 f07947 801f33f 80fc805 1f65 373b10 9ba8718 9bd142c 840243c 80036e0 812b2e5 92d7778 85b938a 8b8bfee 941d3 1388e52 8fa4118 8934e78 d68055 2a251e 888b6e8 19c5d46 927091 17db9dc 84e205a 8ad72eb c4ac99 1e25722 86932f2 59d67b 8a01c83 807ca30 a80c13 1db98e2 98eeaa0 81abe26 821638b abf4b 95a20d8 19547 830ba3b 82f2c47 8130434 1f62e 95d5328 8565c4e 8020ce7 2101a1 821b974 1992a28 873a544 b6089f 320d4e 5e25c7 84aec82 ead5fc 466ddb 35dee 8b3134f 91ae95a 89e784b 83123c4 5725 10d95e6 80f0b66 43b498 7216f 9e0ae88 83a1387 8318214 80737c2 826e2d3 aa414e ba1158 85a9f06 abb84c aaae68 8e72d60 1058616 86d11bb 9cb3dec 9573ad 88f0dfe 98bc21 8ad08db 8a8aea0 f6b8bb 114816 1306846 46184c 8633c79 a968e 4ad1b3 6f1463 92c95d 83f6374 1181bb6 133620e 8233dea 6053d9 8df363f 2b5512 6b22de 4379f 9275f16 1331b8 8c6eeaa 8adb593 881d912 b33968 8344a3a 8033d1a 88e2112 8c99a07 2cb7a6 696dbb 9281dfe 8a92827 81a2f5c 89eee33 cfb9c e6fbb7 50f9db 185564 884097f c6c812 11062b4 2c42ae 28e08a 13ab7bc dacaea 57286b 800a418 7c781e 9e8d474 8f7b07f 9035268 3b1a9 8490fe9 8718947 8d3c8a6 89b70da 83a257a 405ee4 4d105c 52a7ca 57844a d5561 80cfb9f cd3607 845d355 dda948 89a1dbf 88388b 90be7f 1e3c67e 895cc87 2e5c88 9747438 5e8f7f a4854a af2d28 88884c4 458528 10dcb 8010c26 8ec87e6 925bf0a 8a0b6c7 70a2e 62b731 8318962 85d9b33 853ff51 8338e9a 911f0ea 827cd29 102881a 849837c ae60f1 45649b 8542610 846a3b3 d8be5 822f1c 205b18 892d270 8836d46 8b5737c 197ca3 898a652 b1a85 88ff831 d4b75e 83b3787 87ebeeb 8fe637e 8d03fd1 8440540 89cb0cd 36754d 8d8205 b21aa ea7e5f 23616b a2dd3cc 9b90ff 13a575 8f3505a 425ab6 8a6a4fe 6ae0d8 899c3ae 3d48eb c4baa9 4dd7ab 629cb7 1087c4a 808482b 25b9cd a06b24 f4dfdf da8582 8bccfae 2262ecc 81fe8 21c599 823ea1c 2ec9e4 20b61 87bed39 9d28d0 d932ec 80c59a6 892cae4 8b9a8e7 1b119b 8171b5 829e1f bbe7a 86bea3b 7378ff 5c9352 da0ae9 8e5c56a 9353bc6 841c80e 82cd5a2 4e3865 fe8945 148d44 7ab713 620c5f 851e609 14293ec 9c8078 c7cd5a b5c38c 18c026c 127266 81c97ee 2f1926 914f72e 99f8f14 8aaad34 6beaa0 920d562 18513b 906e8d4 8709e2b 84b5160 8c57de9 93dde7c 83a06e4 f1f685 44f831 805a2c5 11d3b5c 1054c22 681832 8b6474e 997efb 8599c27 c37e60 8b0b9e1 7b77a5 8f66b5d 71e37c e43020 ebd930 93e1ae2 1de70e 83afbbc 806208f 87b80a3 814abec 8556da7 71950d 81f41aa 8712fbb 8ae0629 8c1fab8 f39b74 9675eba e912 16a287e 8ac8ae4 8994413 a020ec 81b5473 425ab3 75d19 8389010 815423f 8167c76 8af843a 8fa7d5e 8f0e57c 70d7cb 7835ff 47714a e412f2 8d2348d 81d53d1 9d4ad72 39648 642a84 9227b8e 1248f52 245181 313f48 fa0f16 80bd9ed 98cf1fa 2c5b08 8297ca2 97fb448 312b34 362df2 84df0bd 8b4e67b 4d28a7 1a07056 821ddcb 835214d 858e1e7 809a380 82f3169 a480e 8df813 161ef82 88bc76d 1b70838 86c6ea2 ea96ff 1c26b2a 8126b17 819547c 8209338 80a8083 8294003 203443 8bfe1d6 82717a4 8573731 5d3909 fb10d3 826434f 90d9d9c 8c5e41a d44e24 1674c1e 918bda0 9f4819e 87524fd 9266be6 95ecfe6 1091976 d0048c 11c0086 15451d 8e6e2b4 147bc10 1956a52 dc171e 37370 1171c26 1398bc 2b2c2a 8d8b0e2 9c1ce60 9ae9f32 9022ac6 edf1ac a280bd0 939b15a 105679 9459e98 88dd185 96983a8 981ab92 81be1b 16d9136 88d84e2 25e984 13b4124 711021 822d7c4 87f80af e1492e 760dd1 3b9626 12e7c5 efa90f 87b5258 147c456 a27167 14c5ec0 833915e 3a1e62 88191ea 81bec9d 80a8323 328075 87469c2 82b4ccf 16e0264 8d74081 8aa1ad5 8f4b125 aa2800 8f397f3 80e0dbd 106a15e 83160ec 9534cee 806e353 fb8e32 ae0a0b 162e8ba 9dd7f8 30fb8b 5b384d 91ba78c 8c8b0a5 8c1b5c1 1613974 724b1b 4d4b0f 808c9f5 91be06e 9400cd2 941e9d8 8541f97 8951a3 5df10 64ee53 ab3fbf 34798 8c306d6 859ea8 9b81402 70308d b68713 8ec1809 f2ce90 8ba5c7f dcf43 8d9e265 546bc8 13f2e38 10cfbd4 8063961 879ee3c 816715a a8868f 3a82fc 64628e d8f74f 81f2df7 86a5196 c7903e 847182d 80604c6 8d1b6fb 83f487c c266d7 8a2a6e0 9168754 177982 83e405b 8011040 8879185 11ecb90 f704b9 848905d 90ff020 8be3570 c565d3 b9e941 90cd9b6 9d09db8 80ccedf 88de0e2 914b1ba 69a5f8 bdd9a0 a66b9c 8654d94 9c89c5 868f279 20119c4 81bd307 3cb46e 14646b8 804dc07 8685038 87bf4bb a6cafac 9cd5b62 89fec80 82d8051 8a945c9 839d5c6 639036 93baaea 81ca692 98e2710 9379aee 255ac3 aa1ca6 8cc99db 530cb5 11d9db8 e10399 88b3990 913aa16 177814 53626a d40e88 849699d 1106866 159157 f8878f 284115 1624f88 8a2ccd5 928b66 3c8947 70c553 84e7537 9174b2 92e1200 868af95 3e8122 84d7685 3062df 87d11f8 82a739c 992f5cc 85a1a83 befe90 8f42112 92546ee 8996c75 803f08d 47040b 502100 5c6d16 5b928f 9108308 8a6ee40 9bab324 875186d 8080603 85d0500 3a78d4 9210092 9a80332 8af2bf4 8eb2a27 d7dadf fd7cc7 84ff4db 2c3f19 8354a19 82960be 4a3350 983253 9361872 8027d81 8afc9c4 9972ba8 fede2c a3be6f bfaaa 8d2713a 9008a1e 1b027da 924d54 e036c9 80bf456 8ca7ded 4aa1df 8f40681 4adcb7 e4bc22 200eb2 80722ce 735efd 5f9498 84adfec 84c05c1 8757938 11b845a 10d5ad 93c1a36 838a0b4 8b62677 82da62e 8681875 c814ce 82b0aaf 8075e91 879bcc7 8d689a2 b9e7a8 4702cf 8e3d927 a49bd28 a9563 8d9117f 911d268 28962a 13891fe 133a89e a38004 1a0212 bf09bd 13968f4 841e36c 8ec459 46518b 8de731 8c018fb 238290 a07bd14 9a18ff8 8e7adb6 828daaf 83ef92f 8a30709 8a70581 92c137c 883fd8b 8880d59 99016bc 752930 7bc4cf 8c2568e 8309de8 cc90d2 134ec74 85ed9c4 926111a 8e113b6 4999f5 10a55ba 85f914c 67daec 316d 3f2c74 542bb9 1453a92 8b61df7 885fc21 65a022 828be7b 96346a 8bcef6 5b14b8 2c205a 85eef93 852fd9f 8a22882 81ed407 8f2d11d 87e5cef 9bdd2a 12eddf0 985831c 83b4f60 8779c99 8715351 c80cec 80d1d12 bde439 172ddd6 a24f7ec 881956d 952a1c2 86b1e0b 88054b3 7d7d40 880a29f 802b83c 8cf82ad 643314 92f565c 8482a6e 112c16c 42a8dd 164a4d2 790bd5 71089d fabfbe 1284b9 8955bcf 8c18ebe 36ae34 96b442a c85ffa 1424cc 86cd776 8097e73 a0f62a0 ddf14c abe09d a095d98 67a168 8ec2202 814fc7b 7a7184 8804c91 e9619d 8275274 e77b3 1108bba 86f44f6 8164926 875cbce 1348e8 276577 83d73b8 a65ffd8 8555f3f 397698 d9e7b 8eba5d3 855c768 8b4c17b 83a8440 819c0d3 1eeb20 6566e8 b1b90c 86d2b8d a398080 5ca585 86aac69 98bca14 145efda 309a3e 827cae3 80e5850 d88889 44157f 19b9bac 549450 812e3a3 4aab66 1d37e6 407694 74e8d7 968529e 89416a2 840ef71 5074d3 89a2ebd 136566 83a1420 914c31a 8099457 8e985a3 8d0d5d4 8f40ed7 1b0d830 86bf56a 9a967d 992e20 11a4a94 8781236 84a5b9d 88d667a 4979cd 82ef425 80c730e 9a2dea 3a0c29 8f8804d 2ed023 ffcbd0 8f8be73 8f81fc3 815abff 48123d 110bdfc 71f759 8a0330 84b6c5d 8788e45 82ca3dc 959b8fc 8d3b610 36b9ae 9100b8a 80a5e14 ae1fe3 8ec684c 43f31b 83c720d 835a12f 1167426 1fca1e 422209 c7520 896c6f1 1d8348 9e9834c 854f825 9093018 1bd332c 85f95e7 6c45a3 84621f2 f1bcc4 96dfefa b1f771 129f91e 8c20fe8 9d9963 20f84e 156396e 879734a 50a0fe 8294fe7 8d3935f 81efca8 964f384 1a544d 8502618 8e6551b 69a0f2 94a5208 867f05 8051bc0 913520e 8106fcd 8aa0062 11538 845c50c 9559e18 c7beb 83dadd6 27a85a c35d56 3627fa 9002da4 81e159b 85afa16 37d045 bb39e2 a20e310 80ed115 8119df9 820bd8e 88e2be0 84a257e 84941c7 114dfe 82baaf6 84b7345 904fa16 fe571e 9504e46 9ef2f5c 8351c4c 8a81f99 98a5e14 37cb53 94c04a c12dd6 854ed57 818b573 80458d6 127105a 1e4802 839cd32 6cffdd 4bf2a9 86c9a19 5e773c a817af4 2820ca 83b8d37 89ad68b 37be83 8b4ee92 b843b4 8c6b970 5d2b8f 94669e6 86fd997 911be9a 17e2004 816de9c 8609142 1317c32 7be8da 880f9e4 d3a835 83e484d f07515 5fa359 58e629 e429d 28af3b 9be9908 53bb0d bb963a 8f444a0 8fb5061 1ae01f d1096b 97d193 374aa1 9a750f 8a31baa b8e5df 92c5850 8c31e85 942517c bc5974 9c1000a 9abee10 84e320 8964ca0 443fcd 6d76c6 9334b 11ec992 cc6d59 653f98 65a494 86c37ff 496a53 9898f50 86d078e 9c24506 1b6cdea 6aa90 8b2564 862a4bb be3b0b 9f16f40 fffd42 c72fb3 843930a 87363c7 5e8be5 1f34906 82cb250 60b40a 8fe99a3 821b8cb 19d38de 9460c66 a9f2bd 85bdcee 9ee6bee 11483ac 87c1052 43303 e38685 83442fe 287869 97b6616 97c736 8311a1 8b89c99 ac14a 606dfb 12446ac 3b4cd5 7e365f 9a021f6 1a3f8f 8bbb22c 1414172 21dc50 b6777a4 414b29 74ecfa 81ffc0d 8650cbf 206917 819c31e 861ce9d 89303b9 881a89c 984709c 9fbfcc 91d51ee 9b6c9f6 89b09db 9526fc2 8b64969 2af8e4 897a0d8 3bf943 8984acc 647889 85e76fc 17c50fa 839e392 6f779e 89012c8 8753ee5 8598853 80ff522 b0bff08 333825 803d849 8ea8e2f d1f698 80dda7b 8359a38 8983d96 1520d0 9a3e5ac 531122 8b3d742 14ffdd4 334a36 1f9f6f 5fe8a1 1c5e9d 9c76ff0 ac50a4 94ec2ae 1ec61b 4bc429 9c5d43 80b446d 898e1bc 93d961e 7cab5e bf3f58 88fed92 92b4264 a98846 461022 767e7b 23f759 a0a76c 908c756 60b4d4 92f783e e1a091 22e05f 8b75c8 9afd7b4 a646ce4 904350 867133c 95684e 2af34a 81598fe 14e9f82 8750bf 8f03b7 f96687 220c06 808df9b 938b8fc 862b36f 93ec7be 1b96b6e 8c3144f d745a5 8be9314 118408 9b91a62 13a0b42 883bcd3 70785d 80046f 3caf0a 187c1ca e31a26 a2bf1e 9590856 838c26f 12a6cf8 98ff73e 42bd7e 82ffb80 8f59c04 1413f1a 8eec9ca 8f35ff 80fb82f 8755d12 1d3440 9b6e3e8 8136747 82f1ec 8891883 4b18a0 8087c6e 13d19d0 642598 81c4bfc 9f2ca22 b08bc3 976acda e5fda6 8cf7286 ab69208 78a37f 818f7d2 50bf97 85b770b 7b69d 838962a 93ccf5 7905b5 5613a5 a5a3580 5c1b1f 8adf810 8f0f469 80ca708 8a38904 8c5d002 d750ad 84ff48d 8266e08 860e439 8175f0b 8105459 145b292 109f2aa 373eba 176e7f 7c6dec 2c6242 a8142e a6a8b2c 828d886 84388 82ea484 16952e0 2e6533 8a9a765 8601215 196d96 976f6c8 61a30f 8fd7fa2 8293930 127745a 9a0021 b823df d23d9a 8dd9679 72c2fc 9838bf2 7802a2 d16358 21886 8b5a2cf 693b23 97c4cc2 823f670 118e482 86b695d 902479e 27e85a 840b78 819b54f 506ba7 8b4012 9992780 2b9c36 82f1ce2 a00b94 8fbe330 b939b1 a154c98 a6dc67c 80518bf 7b9574 10cec5c d3e0 89e748e abaf1c 16d84 79cb55 97b20b 81982ca 83e4f48 88ca4cb 818cd93 98ce7b4 6c3659 8d970d5 1b2270 92ffa54 6e78f 93b12d6 ff802e 855bef8 4d32f9 8213f20 8043274 36e397 930fe0 400b1a 8e51b9f 54fdc1 3f5438 8f35fde dd337b 88f42d3 8d0636c f10d53 85c34bf 145d1d4 8249d14 16c2d9 6c1515 9f97ad6 239604 5ed264 84c895c 27bffe 84cf0e7 1c38a1 84c706a 2d8daf 8c69841 729055 8adb6c0 61d929 9a35cbc b188e40 9b0067 21dab9 8208d9a 880a6 8fef43 d2b981 274fbc 7ea4cc 35a4ec 9c42d72 f5bcad 8e69561 81059c8 81de6dc 8d62c18 3255c3 4f46cc 88e3dcd 9fd72c 2a2023 832e80b b59867 42f937 2d1ccd 8469e7 83d7674 253a52 8b2eda f60d11 9663c50 89ed49 8cab59 87cfb47 939cd5 810c3f3 8f4f866 838d629 61cffd 8ea3cac 1735c28 902909a 8273d2d 159e526 844c076 6d7ea5 6eac86 819f800 72ea4e 8d5f704 83f26de e04e7 a93135 95de62c 8207b35 9ca2988 2a2105 103cf5 c1306 9044aac 8a34781 81816b9 80e0481 21c12b 81ec775 9724490 84c28c6 87669c9 1a6b518 8d32250 10025b8 99fbdd8 95b6c34 6f95ae 8669411 f49fdf 1066194 878742f 7c577c 5ce9c5 5f4784 22cde1 8a9a54d 874e33 86a55c7 5591cb 9110532 106a342 8fb0b96 924492a 914a218 88f6e05 9a452c4 1a0f252 b88e59 81a1462 444202 83610d5 850cf0e a7dcf8 8c7d22f 92c994e 1018044 b2df8e 78a9b 888175 8b09489 1787c9 23fc7c 8cef4be 8a439e 867080a 44bba7 81d2360 9d21644 6a7dc7 f86215 816a8db f5e1d1 97b11e 8c74687 89a5ae8 44ad8a 95e4cea 12750c0 87707a1 f4cb3b 98838c6 a11316c 2a41d2 87b5295 8957789 8ec52fb aa7f37 d2b2db 85f894c 8066f21 e28491 99166e8 c9466b 88591b8 8157398 924ed3 889c845 1aa0c1 f772e7 89aca68 11b2790 81aea3c 80f1506 d560bb 97b96d a5af8b 80c09a1 8824f40 7ed3e1 5b9bda 8b51d31 85aa291 844fbef 905b2 1901c6 4a871 cf006c 8eaed5b 8ae3787 910314 7f4c5c 6b17ac 8398176 8164bdc 188127c 8227244 52126e 6909ee 8fb3050 4caa91 86fe5bf 281d99 2ed2cd 8205045 900061c 8c0b0d8 95ebc4a 84fbb6d 8998b7d 3375c7 930cee2 880fcd4 8490268 2387d5 b9876 8864d6 8e06f77 49dda0 8abd0df 1846d82 85c6531 d7d664 33843 902f24c 177d58 829687a 1940c4e 6a46f2 2d6855 6fcbbe a70889 816a5e6 86b04a1 8437a79 8336de8 825b1a3 112a45 a0ddf58 836c890 80e5b56 910695e 15b7d9 83027cb 89a88e1 b316a7 e1f745 830aa23 8628a49 8fd43c9 8f20af5 4eeb6d 86b09fe 1c1181 174cc86 4a9f9d c49745 800741a 846c599 83b0e9b 8382ac5 8069ee5 af58c 84f9fa5 81788e3 829b6b0 85d6a8e 4f31a8 87111e7 25c74d 8bb2a9 3ef028 25267 8174337 85a4cbb 9c6f5f8 402b3a 893b22d bc7a5a 85acb0c 8f44c3d d4da33 1ad21c 9ef5b 82ba955 314d64 81659fb a4de3 dce95a 8111f52 9a17502 800a7e1 95d70e4 8027639 266fd5 86ee13 d82739 204a76 8c4ccc0 b800 8745af5 14a697 878b4d1 66ae65 447a92 6ff5b 8efb2a9 761367 15ba030 9031170 82cddf4 89927a0 35ab23 164680 b9aea0 89eeec 922dd80 c05ba1 c14266 96089f af9d6d 97ec466 81b60a0 1a4324e 84139e 49046c 146efc6 85c9c6f 2b892d 107eb 1fa5b2 83a00b8 bbe8ec 51cb96 90dae2c 9258a8a ab7024 50c82d 3a30b3 a3c4f08 466f60 839b0b9 8ba1ea0 ad03ba 1c1c8f 8952992 5ca4e6 4fdb53 61f4c4 7627b1 1318 2e0ebf 90c02c8 71f548 8a12458 efe000 8d27fed 88c116c ff17b3 657345 1a12d9 8aac2e2 8117bf5 8affe58 8783a66 a85516 9012990 9846070 593bf5 95f0d40 7ab46e 8021eb0 21221a 6e4d33 184a4e4 8575639 82e609a bedab a697ad4 8037e4a 994a4e 1011cb8 fce26c 2403e7 826e5e4 87a4797 842e457 8433b2 881eec7 9028470 84cf760 18bc51 1230498 89c994e 6356eb 34bec5 296ac0 50d5f8 15c8100 820b01b 82e73fd 8088546 84b6e2b 8f7a684 8aee5bb 87aec0e 9601df 84e73c5 8576107 b3fbaa 505533 d38964 22180c 724aa4 55faf0 b03713 8488bcf 81cfc4b 89a4471 7335d6 902031c 472e2d 571c69 baf66 8eeaf7 8977a03 86ca500 c89579 8849f38 8770fc2 848fa73 40d1a2 e4f2f1 842bf19 8230456 98f271 151a084 a478ec4 87b4d4b 8382869 927b91 796050 b2991f 383d5d 9a1f638 107deee b8b42f 833bd0e 83209fb 8d0aa76 8beed3b fdc25d 45f32c 823b018 52794d 1ab987 3f3c9 ccd797 444dae b3259 85423c3 ff765 82741dc 833448 63a498 85a5324 858ae69 990d5b4 42da59 88a227d 9c01468 2ae6c8 835991f 86fb0fd 815fdb3 90e78a6 86e1ab3 8eb19 585429 9e6575 4cbdbe 101344a 8b6764b 26cbbf 9c1c4ba 84c0221 149c978 84c0f5 85427f1 8f46bf4 8037396 8fcda9f 803b40c f31670 8647b66 8aa4177 6abfaa 800d461 83b1495 8555d 856a0ea 80ab6ec 37ac81 8e956f9 88adda5 8647458 8fff89e 177fc8 ebfb0e 81f675 10cd4e2 8b763b6 4d78c7 84ac07d 1d13a0 c8d3d1 85f77be 8e9813c 94fd9b6 1fb49e 1a5e490 812f576 6e1275 2f18bb b20449 35739f 7715d5 8ec0188 89aeac6 80a74f3 90ce120 858593b 803a755 91ad672 858c0de 83100e7 897d0c1 2883d4 81141a8 11a4d7a 83c4e56 83681ed 2e297f dbb122 6c5c1a 1342752 808b483 a75e97 9302d52 81ddf29 8108cb5 d9337b f92c18 572f06 2a41f9 1ec3c7 19cdfd ae6b73 e84c50 87a50b8 a0c301 856b10d 18ccf4 8ae830a b08e63 97e1d68 912f810 83608b2 8ace18d 88af279 488871 120b310 9a4fe48 74d98e b756fe 6360e 582a5b 8de9d1d 82d0bec c17578 15c1d94 860ca6e 8b4328e 96510c0 9b6b430 13ed778 8def9cd 833fbaa 999151a 7d8f7b 9a28aa6 80a2eb8 583e17 84cb1dd 150699 8e56f03 156b958 86e7179 93106a2 16eaeac dcc59e 89e6dc1 87f8fd9 8cba637 879a082 6b6d82 8584938 88f8b96 2f77e2 964ed0 21c99c 1c669da 8845af8 9143734 6d43d1 8453407 8e47cc2 8997211 8393d36 5a9e6e 17e447 45276c 83b6424 9103692 8724a9b 8223a9a 8f393dc 83d990b 89d5037 84d2908 8ab1174 8e2cb47 8e34e2a 84d6b9f 34ed4 807be67 73c84d f729c2 8045492 8d7886d 