8704f74 82fa46e 78301d 83eda92 824d8b6 e25c75 900d1d fd501 11d93f 965435 3a0d90 42f59 4ef4a0 489667 a1be1d 1025152 dfceba 85bcce5 7c8bf 245c22 2621d7 80f25a6 1eb090 4e4cd6 49a6d7 697068 afc545 15098c 9b2289 448be5 cad4c3 8b38bd 12ccac c97ce5 4a55d7 8450387 823a7cc d2d68e 244f1d 862e891 86470fa 80b4d58 67d868 8359bb0 705041 8079521 d4592f 1058a92 88256db 8ed678 79a89 85587b6 4c064b e97a3a 6dd7e8 489bff 4d4aaf 1a0967 8175fc8 7dbf2b d9cd3 834a0f0 83eefda 721a3f 328d74 91f9fe 38df16 6b4ae7 80754cb b2167 7f293f 80a7c63 15b088 b1604c 831b446 82fa7c4 867aed 8925c4 450911 e3e4d f701b3 26066 86500bb 2d92a8 50ea14 8607b96 48bb78 148a85 804bc53 1791e66 80cac26 8bbe9 835fc37 1fb281 715eb 3631dd 863f4a4 1299a0 842bb8c 830a36f 82a08cb 863ad2b 812ccd1 10df290 1ec238 529e0a 1e82ac aad847 6a460b 8142d0a 214b96 f8663f 9fbdb9 60ea00 82c7240 427bdf ba2136 25b054 74eb56 b99c5b 9c2365 8356d2d 80dcfb8 5097d3 76895c 847ebcd 8bd4383 85006ca