163eaa2 8d43c88 72f8 13e0546 1566680 b59ee38 c8ca97 71b011 80c2b04 8df253 f6323 8ad7fd d7b051 18bb97c caa4170 1ca0cf0 9d22d24 dfa955 960498a 8d4eb7a 9ac984c 12cb36e 109895c fe289f ebc0c 86bb6f5 8c548b4 9963544 1525dc0 1217586 a9ce5ec 965ba1 8c50e9b 12d75c2 a6b4694 15579c8 e6995f b1e4734 d0bf11 43c948 846bfa1 185d1c0 822923f 3048198 1080e9 b88ed4c a25a890 507ed7 91ca8a0 825f49b 912b192 90db646 b0218a e31768 140d66e 99a39ac a32d008 21c67b4 d373ac0 11f883c 9f24e42 874ce18 a649a34 9fd0050 1edf45a 2b80d08 a9b229c 1bbe3ee 1624100 a141bbc 11299d 16ed43a c58ea1 9919d78 17c5010 bafce4c 921faea 1d237f2 119609a 9889184 bf2b6b0 c8aa66 1688bf6 83dec7 be68880 1b8fd50 9104afa 23abe18 990e6f4 9096a3c 961778e 9a90b30 8732a42 81bf7a9 7744ec e2592b 7b18c 884c836 160e38a 147c398 f73fd6 a463ad4 8fe96ff 1091efc 15503ac e25ba6 8d9d43d a8dabb 1195a58 d7f5b9 10a503e 8483ed0 149331c 8bac2ee 8defc5a 119797a 931e056 5eea7c 9dfde5 187a532 9342432 10f63a0 d7e444 ab1385 1092cc2 a74e038 b0cf7d4 813b686 e2722e f0ea30 f0ae7c 983cbda 87e1d71 924f4da 912393c 161fd7c 16cae4c 940d8b2 14daa1c 1353084 1fa0ba2 9400100 a3bb110 abd4500 9a08de6 2ccb888 1c2aa4c 9796e2c 9bc2b6 263f7dc ade0234 a4607ec 13c32b8 9d2af4e 13623d6 98da2b 8e225d4 8a6383d 11d2fec 18ea356 8edc83d e4c6aa 103641e c4c1998 1fffa42 9ce5156 101cb0a 18a7cce 31eada 85f4451 aa246c aae5710 16a4284 1157168 a5e11c4 8b62f4b 9c5d25c a6a37d e6f716 86b178c aa4cb84 1273762 c07a980 be114b c4d99d0 2ed4a00 1eecc58 89eb2a7 98f176c cb45da 95fb40a 5ebe36 a4d96a4 1282f9a 25e0ca ce5937 95f864c b5b4dd 1831c6a 8b4d9d0 b3a0c5 5ee2e9 800da8f 8bb07d3 a1ab428 835b32d 1f4fa30 10b32d4 13be748 b3a37b0 9468734 87182bc 110dfcc b12fe0 8bf217a 82d682d 8645831 651659 4d3b8f cc532c0 9fcaa3 1f0897c 2c17aac 94d6436 96eaa84 c7f4e40 2905fb 91128d4 26bd85c 9d34dc8 ddc791 2c4567c 8160e77 a2e0710 b8f17b 8bc87d2 121d266 1920854 a198854 fc2b6f abd7f3c 8454c43 ad168e0 905c5fa 219d5e0 2a3a410 820b702 920e110 8a233b0 a6ca4ac ae750d 9c8c22 801f9d 9390e30 367cc7 8d85c62 11637d4 9b77b1c b5c528 8f240c2 8e20d56 9a80e70 23437c4 aca6df cb3916 97b9470 16193e6 b1030e0 b22b7ac 13bfb2a 223ad70 1616a88 6302fd a2da5e0 83db576 7457c1 9c9b6c 82db3c7 c1bdc50 1dac6ac 97603e8 aa3bffc a506530 8f9ff78 d6e84e 1d680ba c2e9d3 1363618 22915f8 d2a79c c5f2b98 96aa55 39b7db4 95ff164 8524d9a 1827b64 8e1cf79 a0fe16c 23494c 9ff2018 10a2292 3111c50 274c6f8 8ded57e c77dac0 9c71784 8820eb4 87373d4 971f464 800d19c 8bf7f93 a6c4cc8 9630936 8d4a159 89b5c4f 980e8c a0c3c7 1027356 8109ce2 93f57f 8bf84a8 9157704 13bf392 9db900 8fafd5f 8a59150 10412ee 9e8b128 11b4a76 82fef8d 65e104 16594a4 17814b4 9df0386 867aeb 891024d afd542c 2b9cd68 8b6eb26 a904c 89c3432 8017e23 2458060 9e6aa0c 829760f 17fd682 868b75f 2501f30 bd3d748 85f695b 1f85430 1ad30f2 bc462c4 a61ae 84e9f 9935078 260fcf0 a1792d bda95bc 19d9644 11987aa 4e98b3 6a464d 1271292 ae80420 1408484 927c68e 85192e9 e28b2e 976cbc6 192cc7a 9d9d374 26a29fc 8f7e702 851194a 395d304 a8e8f10 922b30a 9eb7dfe 8abf15c 18a6b92 8c650a4 89a6867 dd2bab 1468144 1cc85c2 d269e8 99e9d8e 1219d22 123dda 173b210 a9a659c 8fc26f1 f7de2b 8e8e96d 16d01f6 20f45d a02ddd0 9c9811 1407f7a f99b5e 815c6a8 ab109f 1243f54 653669 a087158 87651f4 8de1478 818ac17 13e96ec fe0ba1 9f96ec4 844ffdc 8ac7e6d 9480308 4c43e4 829616e 9f5811a 548480 a644f1 9c22af0 8ab47ed 8e5ca09 18e8eb2 eabf84 91e8870 b30eed8 6edfac 90882cc 1f5b0ba 16e83b6 d36834 15a189c 1457218 17787a0 c103060 aa981cc 1bc09ae a9fdb28 ae9de7 8a9cffa 989eaf8 9c29ecc 8affee3 48d4da 8d2c6d2 832007c 17d9ca4 99b406a 14512e2 dc5413 2940730 b57e820 939d3d2 18e3d34 839c760 d0e6dd 20c5f20 82a2a5e 9710e18 a470b5c 9cb3f88 889e5aa cb2f4d0 3b9c720 95cf7c4 c7adb78 20ae800 8af01ce 849522e 9b73a6e 2c63128 12a8eca 9c2920a cc473b 10bc27 b228c48 944a5d8 9838266 1654258 d4555d b4f86a4 a273628 142a0ac 9ce02ac a3ecbe 1b14872 a8f4258 162f3e0 1a8651 90ecab0 1185632 a7b359c b63dae8 295d770 666890 8367677 8ba4b4e 175672a a32ef48 254c094 b376094 1484dc6 2b7b7cc cb88658 ff2a55 812dca9 2f0eb28 937ad20 9d81bec 9a0eb94 1f3eeaa 83570b6 1c27e50 a19a66c 9eb3f7e 960ceea 15d098a 1ef0c92 8d420fc 12fa872 b3335f 67f05e 96d6660 1e7dd0 9321fee 10db81e 8565acd 3f974c 11cb85a 14a9892 89684aa 995e078 836d7fd b7d7bfc 20f0a94 207a0cc 22237dc c48b0a0 a237480 8a1834d 19a8958 1b513a4 8919470 88f2305 8a9d90a 115e358 b58c 7af101 18890ba 676a5c e88a4d 11df324 85b1259 8ddae0 8e6ddd0 1008832 8460668 1563efa 9abdca4 bab689 a0e95c0 75e698 878cbcb 1330fb6 8fdde48 78c79d 955c23a 211171 950cfc0 8806d59 2966178 e4a713 b10efe0 384c148 1dd807e aa2494 d72090 bc504ac a508998 6108b7 911180e 9429ea4 7d3e97 87c6d25 94bbdc2 a2e98ec 15ee726 870d5f3 199ed3 83fd58 e9588b 8416f5f 809718f 179873c c89abd 942a5cc f001e8 196d04c 81cac44 8d5bdaa 190a652 9d0391 d0dc2b a8ec19 9715ad8 8e39b2f a44afe4 b582d3 8026ea6 c4331c0 95e1df2 2692f7c 9c738c4 ab333e4 1023030 81c372d 1dfd62a 1dc90fa b743128 1b39352 9456942 45315d0 8a3e2c af3b5ec bec3cfc a5ab568 92e71fa a7b05b0 abd0e38 b9e331c c03521 112a3cc 9d52db8 a130e70 80410ed 10516f8 941a83a de5397 1f30b66 7b91fc 92e0fd8 ae7af34 2c28d4c 9c1219 b353ea a6991f 8c95544 a84f0b0 94e6a76 71fd87 108cfc0 c709af0 b43e03 19ebfaa 1640164 9204f2c 867f214 a26ab64 1effe3c b2afdfc 1dea098 a141e30 303b5d4 81c980 10b5ca6 80ec34 2079590 923c420 a7515bc 7028eb 8085169 8ae73aa 96efc50 ecb8a3 b0368a4 87c762f b57f66 873170b 17a5c16 14bedd0 153803e ed2d9c 1a114b0 b46c178 a0e9a10 b486154 2ecf8a8 995f566 a424710 95b13be 195ad4c 12e63ac c97390 9203290 91a20e 5f977e 2187d34 3eaf13 c3a5b60 86265bd 8f9bfd2 f66e2 947ecfe 108d590 97e5a4e 809dab8 9261c70 11b4d3c 867f806 9738ba6 a20ea64 1054666 de487b 8424ae0 8b09bb2 8429f83 8d017f6 918b712 1439d9e 8256126 a1470f0 ba9d26 9b3f072 8897047 aa75274 150a84c 9ccf936 912ed4a 2595324 b314f8 18f28d4 b05fba0 837ee6a 2962ea8 827c5e4 1bd4c86 30aacd0 88fd74f bf9909c 1393f7 a592038 8ea2655 e95f04 1425a28 918edc8 9ecdad 8e1b6ab 916edf2 f985aa 83fcb85 8d3f741 bf7b68 895f4f8 aa2947c 238b894 820f13d 48d464 9afedde a3d985c cbda5d0 a47e338 a7d5d0c 263347c 1aeaf82 2a3fd74 ba9717c 9e42d20 9c8180a 84bfb56 b320a20 1f11538 e8eba7 60a089 f0f53d a1621d8 13e7c7a 26ec34c 7f2fe2 ae11024 1a2dc78 90e262e 1bbd5c6 af008b0 9145248 a21bb24 177da5 91ce76e b4a223 13819ca 113b89a 8f939df 9638346 ae76454 1a5202a 381f67 af1cce8 826b086 8b0fc76 17a2270 8a00048 81624b5 18ede12 95aaefc 132890a 662302 1cbe6e4 957ff82 e5c528 b3c4944 802b510 a4027f8 828804e cef644 8050a78 bf891d 9592c48 804439e 10a842a 12c2926 93b07e6 7081af a5bdf94 2ae3dd4 230e9a8 b5220b8 18bc164 8442bea ab9307c 8b71a3a 119d208 1d4e950 68cf 13d0fa 1515540 4c79b1 d3d314 11e2742 b36f428 2299b34 abce3 8fec385 913db08 92ec7c4 96ad30a 4f5549 a9eb1c4 3d9641 b54234 15db442 bd29498 803d888 60376e 1b8e358 99bc0ac 22742a8 cf443e0 ad16284 99b337c 2526334 187400e a2f16a0 1253686 676326 33f87 e68fc6 22c867 802cb91 167e6 951c21e a8e4100 93a5734 9cc70c2 9e2b80a b628cfc 2f5d610 2f3746 119acfa 8f6df05 21b1bf8 4f6db0 89abbb1 9bc0f2 190d6a0 140f5fe 227a48 1385f18 16be6b4 9eaaf6a b9c295c 93c9d3c 3c59dc ae3c974 ae2d0dc 84b8b72 46e074 9740cf2 8015d65 d3dc9d fe18a3 8f99184 18ca7f0 14ce97a 857e7c2 9420f56 849c8e8 2d0290 952dbbc 9815742 a150194 19b88e8 1105d38 15cef3e 96240a4 ffe5b4 92fb808 1fd12e4 6ba9fa f3539d ccf2fb8 107931a c39a3b 8ce8a6a 901d308 8177263 a07bac0 13699c2 9417146 7d91e9 c66ae 8c77d78 1299a80 56486b cb3027 8a06163 82ff1e6 4de973 8929dfb 179576e 4f24f7 11e282e 8b790ce 82e5eb5 6a78d5 b1eeef4 114a36c 924ea34 105269e 1419f5a 489707 87335a2 8883f4 8d8af84 903010 93094e4 b6dc128 2dcd8f0 12edeac 8bd503c 85d3ac fa23ba 107152c 170ef44 a30e07 872222a 10da99a ec127b 85f369f a43fce0 ab1c1f0 11ba4b0 8127266 569cd4 166eace 328940 165ef14 9c824d8 9ed806c f593b7 912c900 854f6cf 935f042 1ae00aa 1ea0a62 b8e2110 857cd3e bbf8748 13af09a 891a3ad fff64 1578c24 a09220 842e082 1a97536 1324e62 984de2e 831b64a 1e30bdc 96fdb0a 9ca904e c0821e0 88780d0 902e756 2d3297c 18e34b8 9edef34 a7591e4 902f242 83de41d 8c3dcc4 27d0 24dfaf 86251c 55875a 978581e 9cb30d6 c0a68f8 1cdeb1c 8908ae5 8914317 c734280 2e7c61 b0a3a64 2e5f0f8 11c16cc 17b8ad2 a2907f0 be93868 96853ae 10af97e 857b964 11c875c af7fce8 a735380 910b22e 1bfc928 10b4a1e 2a90a24 a71fe34 d89432 1a62b54 d5c65c 9600a48 85f6b40 b725588 9d2a30 dc85f1 9395c1a 81d4935 74c7e2 df297b 9cc96da 1321250 a8f2a9c 18ad7e2 7ee99e aa238 99f15a2 107a4b0 15c2cb2 16a8016 8d028cd 522acc 8d54622 c6da5b0 168ac36 23a9c04 a90ec2c bc33ab 8b2fa08 2eea410 28287ac acd67d0 9188706 48303e 9395524 971bcb2 a5acc00 113a512 954bcb8 920a41a 9ce6b00 fb4b14 a0fcfe4 b886cb4 2ab042c 1156652 8f14089 99d172e 1a5773e acbca0c 2d7b858 9d42a0a 81eaa97 54b95d 13eb112 cc7f9c8 b33007c afd83d0 6b7b1c 85ca2df 151ac14 9e811e6 10b8166 89b2f2d 8b2ee58 ac2d2d8 8caeeb3 17dc468 3a6deb 714f16 adce93c bc2a1c 8fc9a44 11ed246 8091a3c a40f1f 1875390 8d253ce 1079a0 90da108 28c7980 1a5f960 86db268 29c2af8 12d9cce 89093e5 adf43a4 c237b28 b6eada4 9d413ee 33056a4 ada209c 8d9a8e2 2278e58 90c3e40 1908050 88fcae1 8d8b4d8 a4bf8e4 9425ac0 95bc15c 94e39aa 1219f78 9a0a57c 81dfebe 8827b3 8eac7e4 24a3d70 b28c2a4 ce7fc3 96a7536 f66953 83412b0 14f4a34 9bdd406 a6dc194 11a58e8 ee0f0b 15ec29a a3624c4 9c537da 927bfa8 83cfd05 98f976 4d7ffb 9ffa8e6 bc89c8 159a73e afad6e 1d2ff36 b8cc20 23b8274 82b7ebc 9be0df0 fe1278 846420b 1413af4 95c1396 ab74e70 ba73bc0 19e8b0 1f9cdcc 8b1a471 1bf7e76 25121a0 a0873c8 12360e0 81e56b1 8950023 b6b9924 e9b0c6 8fd2a58 9580b30 8a489a ef1854 b9f19f a6ab948 5c87ce 1bf158 964a2ee a03ab30 1634ef8 13544dc 2a089c 81dae0f 1635ebc b627fa 7fd74a 5bc6e1 839f9d0 cb875e c3bc22 1901764 99d0aa0 6350d3 b06558c e1b9c9 e2fda5 13da9e4 8d57527 42e0a8 62a6f3 d3a098 9ab87de 99394e4 86c8bbd 82cf69b 137ac0a 166a5f6 368d88 edcfc1 ab3dfb4 8142156 b96cb5 857dc4c 17a9d58 91c9b84 dc8b72 97ac69 42c8c9 14e43ee 1264798 9025188 ce7f41 d7b93f 1674a5a b000088 ac61d afa311c 8463cb6 9a23704 a238f4c 2855b58 8ce4554 c7f341 db4a4f 1b875be a4ce6cc 910b21e 6f92b6 9abd73a 1225e02 16786a6 cc456e0 532350 8fc45a8 4ddc15 88d1c1 6f9846 424292 aca38b0 9e9b268 2e4a480 9b596e6 1b737a8 86db076 c789d38 8965b40 cd2813